{
  "<unk>": 0,
  "<s>": 1,
  "</s>": 2,
  "<pad>": 3,
  ",": 4,
  "\u2581si": 5,
  "-": 6,
  ".": 7,
  "\u2581de": 8,
  "\u2581pe": 9,
  "\u2581sa": 10,
  "a": 11,
  "\u2581in": 12,
  "\u2581lui": 13,
  "\u2581a": 14,
  "\u2581ca": 15,
  ":": 16,
  "\u2581la": 17,
  "i": 18,
  ";": 19,
  "\u2581care": 20,
  "\u2581\"": 21,
  "\u2581cu": 22,
  "\u2581nu": 23,
  "\u2581din": 24,
  "\u2581va": 25,
  "\u2581": 26,
  "\u2581se": 27,
  "\u2581ce": 28,
  "\u2581este": 29,
  "\u2581s": 30,
  "\u2581Domnul": 31,
  "ntru": 32,
  "\u2581o": 33,
  "\u2581voi": 34,
  "\u2581au": 35,
  "\u2581un": 36,
  ".\"": 37,
  "au": 38,
  "\u2581i": 39,
  "\u2581zis": 40,
  "\u2581Si": 41,
  "!": 42,
  "\u2581mai": 43,
  "\u2581le": 44,
  "\u2581lor": 45,
  "e": 46,
  "\u2581Dumnezeu": 47,
  "\u2581vor": 48,
  "\u2581Domnului": 49,
  "\u2581fi": 50,
  "\u2581ei": 51,
  "\u2581Israel": 52,
  "\u2581sunt": 53,
  "\u2581el": 54,
  "l": 55,
  "\u2581El": 56,
  "\u2581cand": 57,
  "?": 58,
  "o": 59,
  "\u2581tot": 60,
  "\u2581cei": 61,
  "\u2581caci": 62,
  "\u2581dar": 63,
  "\u2581facut": 64,
  "ti": 65,
  "\u2581inaintea": 66,
  "\u2581toate": 67,
  "\u2581fiul": 68,
  "am": 69,
  "upa": 70,
  "\u2581fost": 71,
  "\u2581d": 72,
  "\u2581n": 73,
  "\u2581te": 74,
  "\u2581era": 75,
  "\u2581am": 76,
  "\u2581tara": 77,
  "!\"": 78,
  "\u2581sau": 79,
  "\u2581prin": 80,
  "\u2581pana": 81,
  "\u2581fie": 82,
  "\u2581al": 83,
  "\u2581Lui": 84,
  "\u2581impotriva": 85,
  "\u2581l": 86,
  "\u2581Isus": 87,
  "\u2581dat": 88,
  "\u2581tau": 89,
  "\u2581peste": 90,
  "\u2581toti": 91,
  "\u2581Dar": 92,
  "\u2581mare": 93,
  "\u2581Caci": 94,
  "le": 95,
  "\u2581daca": 96,
  "\u2581aceea": 97,
  "\u2581nici": 98,
  "\u2581fata": 99,
  "\u2581cel": 100,
  "\u2581cum": 101,
  "\u2581acesta": 102,
  "\u2581tine": 103,
  "\u2581David": 104,
  "\u2581aceasta": 105,
  "\u2581imparatul": 106,
  "\u2581face": 107,
  "\u2581ai": 108,
  "\u2581ne": 109,
  "spre": 110,
  "\u2581Dumnezeul": 111,
  "ul": 112,
  "\u2581Sa": 113,
  "\u2581mana": 114,
  "\u2581ziua": 115,
  "\u2581casa": 116,
  "si": 117,
  "\u2581asa": 118,
  "?\"": 119,
  "\u2581meu": 120,
  "\u2581Eu": 121,
  "\u2581ma": 122,
  "\u2581da": 123,
  "\u2581ea": 124,
  "\u2581luat": 125,
  "\u2581-": 126,
  "te": 127,
  "\u2581zice": 128,
  "\u2581pus": 129,
  "\u2581fiii": 130,
  "m": 131,
  "\u2581ta": 132,
  "\u2581A": 133,
  "\u2581raspuns": 134,
  "\u2581fara": 135,
  "\u2581poporul": 136,
  "\u2581In": 137,
  "\u2581Iuda": 138,
  "\u2581Moise": 139,
  "pa": 140,
  "mi": 141,
  "\u2581venit": 142,
  "\u2581erau": 143,
  "\u2581noi": 144,
  "\u2581toata": 145,
  "\u2581ve": 146,
  "\u2581inima": 147,
  "\u2581mi": 148,
  "\u2581mine": 149,
  "\u2581parte": 150,
  "\u2581I": 151,
  "ai": 152,
  "\u2581ci": 153,
  "va": 154,
  "\u2581decat": 155,
  "\u2581imparatului": 156,
  "\u2581Cand": 157,
  "\u2581celor": 158,
  "\u2581S": 159,
  "\u2581Meu": 160,
  "\u2581mijlocul": 161,
  "\u2581doua": 162,
  "\u2581mea": 163,
  "\u2581oameni": 164,
  "\u2581acolo": 165,
  "\u2581De": 166,
  "\u2581vazut": 167,
  "\u2581om": 168,
  "\u2581avea": 169,
  "\u2581intr": 170,
  "\u2581v": 171,
  "\u2581Atunci": 172,
  "u": 173,
  "\u2581pamant": 174,
  "niste": 175,
  "\u2581Nu": 176,
  "veti": 177,
  "\u2581dus": 178,
  "\u2581du": 179,
  "\u2581Pe": 180,
  "lor": 181,
  "\u2581Tu": 182,
  "\u2581tale": 183,
  "\u2581Daca": 184,
  "\u2581trimis": 185,
  "\u2581tu": 186,
  "\u2581aceste": 187,
  "\u2581cele": 188,
  "\u2581eu": 189,
  "\u2581rau": 190,
  "tre": 191,
  "\u2581pricina": 192,
  "\u2581locul": 193,
  "\u2581ale": 194,
  "\u2581intre": 195,
  "\u2581fiecare": 196,
  "\u2581nascut": 197,
  "\u2581unde": 198,
  "\u2581zi": 199,
  "\u2581adus": 200,
  "\u2581mainile": 201,
  "\u2581impreuna": 202,
  "\u2581vorbeste": 203,
  "\u2581m": 204,
  "\u2581Ta": 205,
  "\u2581astfel": 206,
  "\u2581Iata": 207,
  "\u2581iata": 208,
  "\u2581copiii": 209,
  "\u2581vorbit": 210,
  "\u2581Hristos": 211,
  "\u2581bine": 212,
  "\u2581lucruri": 213,
  "\u2581viata": 214,
  "\u2581Ierusalim": 215,
  "\u2581trei": 216,
  "\u2581cine": 217,
  "\u2581Ma": 218,
  "\u2581nostru": 219,
  "\u2581acum": 220,
  "\u2581faca": 221,
  "\u2581auzit": 222,
  "\u2581ani": 223,
  "\u2581Au": 224,
  "\u2581afara": 225,
  "\u2581sapte": 226,
  "\u2581Mea": 227,
  "\u2581tai": 228,
  "ii": 229,
  "\u2581Ei": 230,
  "\u2581Dumnezeului": 231,
  "\u2581ele": 232,
  "\u2581Mine": 233,
  "\u2581cuvantul": 234,
  "\u2581mult": 235,
  "\u2581sub": 236,
  "Iata": 237,
  "\u2581nimic": 238,
  "\u2581are": 239,
  "ui": 240,
  "\u2581Doamne": 241,
  "\u2581Numele": 242,
  "\u2581ti": 243,
  "\u2581spus": 244,
  "\u2581lucrul": 245,
  "\u2581Saul": 246,
  "\u2581Tau": 247,
  "\u2581Iacov": 248,
  "vei": 249,
  "\u2581L": 250,
  "\u2581vostru": 251,
  "\u2581Cel": 252,
  "\u2581mii": 253,
  "ului": 254,
  "\u2581voastre": 255,
  "\u2581orice": 256,
  "\u2581foc": 257,
  "\u2581poporului": 258,
  "\u2581Casa": 259,
  "\u2581sute": 260,
  "\u2581oamenii": 261,
  "\u2581omul": 262,
  "\u2581ajuns": 263,
  "\u2581mele": 264,
  "\u2581aduce": 265,
  "\u2581iesit": 266,
  "\u2581zile": 267,
  "\u2581aminte": 268,
  "\u2581inainte": 269,
  "Nu": 270,
  "\u2581Apoi": 271,
  "se": 272,
  "\u2581aur": 273,
  "\u2581acela": 274,
  "\u2581ochii": 275,
  "ati": 276,
  "\u2581gura": 277,
  "langa": 278,
  "ar": 279,
  "\u2581atunci": 280,
  "\u2581esti": 281,
  "\u2581jertfa": 282,
  "\u2581voastra": 283,
  "\u2581iar": 284,
  "\u2581doi": 285,
  "\u2581tatal": 286,
  "\u2581tuturor": 287,
  "\u2581apa": 288,
  "\u2581vremea": 289,
  "\u2581Aaron": 290,
  "\u2581cetatea": 291,
  "\",": 292,
  "\u2581fiilor": 293,
  "\u2581unul": 294,
  "\u2581Te": 295,
  "\u2581plecat": 296,
  "\u2581M": 297,
  "\u2581fac": 298,
  "\u2581copiilor": 299,
  "\u2581Cine": 300,
  "\u2581omului": 301,
  "\u2581nevasta": 302,
  "\u2581cuvintele": 303,
  "\u2581Se": 304,
  "\u2581Egiptului": 305,
  "\u2581chiar": 306,
  "\u2581iarasi": 307,
  "\u2581pune": 308,
  "t": 309,
  "\u2581ia": 310,
  "\u2581loc": 311,
  "\u2581Tale": 312,
  "\u2581cinci": 313,
  "\u2581patru": 314,
  "\u2581veni": 315,
  "\u2581Imparatul": 316,
  "L": 317,
  "rea": 318,
  "ma": 319,
  "\u2581lucrurile": 320,
  "\u2581vostri": 321,
  "un": 322,
  "\u2581spune": 323,
  "\u2581slava": 324,
  "\u2581Asa": 325,
  "\u2581imprejur": 326,
  "\u2581nimeni": 327,
  "\u2581tatalui": 328,
  "\u2581pamantului": 329,
  "\u2581apoi": 330,
  "\u2581imparat": 331,
  "\u2581intors": 332,
  "\u2581pamantul": 333,
  "\u2581inceput": 334,
  "\u2581putea": 335,
  "\u2581douazeci": 336,
  "\u2581acestea": 337,
  "\u2581celui": 338,
  "\u2581D": 339,
  "\u2581numele": 340,
  "\u2581inapoi": 341,
  "\u2581popor": 342,
  "\u2581Fii": 343,
  "\u2581cetatile": 344,
  "\u2581ramane": 345,
  "\u2581ati": 346,
  "\u2581numai": 347,
  "\u2581cetate": 348,
  "\u2581mari": 349,
  "\u2581poate": 350,
  "\u2581Solomon": 351,
  "\u2581fratii": 352,
  "\u2581glasul": 353,
  "\u2581porunca": 354,
  "\u2581razboi": 355,
  "\u2581ramas": 356,
  "\u2581gasit": 357,
  "\u2581Voi": 358,
  "\u2581Mele": 359,
  "\u2581slujba": 360,
  "\u2581ostirilor": 361,
  "\u2581spun": 362,
  "\u2581intoarce": 363,
  "\u2581faci": 364,
  "Sa": 365,
  "\u2581pustiu": 366,
  "\u2581poruncile": 367,
  "\u2581fii": 368,
  "\u2581chemat": 369,
  "\u2581ar": 370,
  "asupra": 371,
  "\u2581Sau": 372,
  "\u2581(": 373,
  "\u2581dintai": 374,
  "\u2581vine": 375,
  "\u2581Iosif": 376,
  "\u2581murit": 377,
  "\u2581scos": 378,
  "\u2581argint": 379,
  "\u2581vin": 380,
  "\u2581trebuie": 381,
  "\u2581aruncat": 382,
  "\u2581urma": 383,
  "\u2581cer": 384,
  "\u2581Am": 385,
  "\u2581cea": 386,
  "\u2581zilele": 387,
  "\u2581asculta": 388,
  "\u2581casei": 389,
  "\u2581suit": 390,
  "\u2581mei": 391,
  "\u2581oamenilor": 392,
  "\u2581Duhul": 393,
  "\u2581cat": 394,
  "\u2581aduca": 395,
  "\u2581ridicat": 396,
  "\u2581Iosua": 397,
  "Ce": 398,
  "\u2581duce": 399,
  "\u2581intai": 400,
  "\u2581vedea": 401,
  "\u2581parintilor": 402,
  "\u2581Avraam": 403,
  "\u2581scris": 404,
  "\u2581Du": 405,
  "\u2581muntele": 406,
  "\u2581cineva": 407,
  "\u2581Egipt": 408,
  "\u2581multe": 409,
  "\u2581Ce": 410,
  "lui": 411,
  "\u2581mancare": 412,
  "\u2581unui": 413,
  "\u2581vina": 414,
  "\u2581sufletul": 415,
  "\u2581Tine": 416,
  "\u2581picioare": 417,
  "\u2581domnie": 418,
  "\u2581sculat": 419,
  "este": 420,
  "\u2581faraon": 421,
  "\u2581robul": 422,
  "\u2581Fiul": 423,
  "\u2581faceti": 424,
  "\u2581coti": 425,
  "\u2581drumul": 426,
  "\u2581poarta": 427,
  "\u2581ridica": 428,
  "\u2581seama": 429,
  "\u2581trecut": 430,
  "\u2581sangele": 431,
  "\u2581vreme": 432,
  "\u2581puterea": 433,
  "\u2581tare": 434,
  "\u2581fiu": 435,
  "\u2581Tatal": 436,
  "\u2581dinainte": 437,
  "\u2581nicio": 438,
  "\u2581unii": 439,
  "\u2581dau": 440,
  "Pe": 441,
  "\u2581inca": 442,
  "\u2581intrat": 443,
  "\u2581fiindca": 444,
  "\u2581an": 445,
  "\u2581Ierusalimului": 446,
  "\u2581tarii": 447,
  "\u2581poruncit": 448,
  "\u2581fratele": 449,
  "\u2581zece": 450,
  "iti": 451,
  "\u2581dreapta": 452,
  "\u2581aici": 453,
  "\u2581singur": 454,
  "\u2581credinta": 455,
  "\u2581f": 456,
  "\u2581parintii": 457,
  "\u2581nou": 458,
  "\u2581drept": 459,
  "\u2581capul": 460,
  "\u2581niciun": 461,
  "\u2581mania": 462,
  "oarte": 463,
  "\u2581noastre": 464,
  "\u2581lumina": 465,
  "\u2581zicand": 466,
  "\u2581lucru": 467,
  "ele": 468,
  "\u2581dintr": 469,
  "\u2581capeteniile": 470,
  "\u2581ori": 471,
  "\u2581cazut": 472,
  "Asa": 473,
  "\u2581trece": 474,
  "\u2581picioarele": 475,
  "\u2581putere": 476,
  "\u2581sus": 477,
  "\u2581multi": 478,
  "easca": 479,
  "\u2581sabia": 480,
  "\u2581bun": 481,
  "\u2581Casei": 482,
  "\u2581numit": 483,
  "\u2581suta": 484,
  "ilor": 485,
  "\u2581lua": 486,
  "\u2581Mi": 487,
  "\u2581printr": 488,
  "\u2581vo": 489,
  "\u2581asezat": 490,
  "\u2581noaptea": 491,
  "\u2581neamurile": 492,
  "\u2581oare": 493,
  "\u2581lasat": 494,
  "\u2581lasa": 495,
  "\u2581jur": 496,
  "\u2581noastra": 497,
  "\u2581sunteti": 498,
  "\u2581Legea": 499,
  "\u2581moarte": 500,
  "\u2581altul": 501,
  "\u2581cunoscut": 502,
  "\u2581Cuvantul": 503,
  "\u2581neam": 504,
  "\u2581sta": 505,
  "\u2581cetatii": 506,
  "\u2581intra": 507,
  "\u2581Sfant": 508,
  "\u2581calea": 509,
  "\u2581Ea": 510,
  "\u2581pace": 511,
  "\u2581nostri": 512,
  "\u2581Din": 513,
  "\u2581Pavel": 514,
  "\u2581locuitorii": 515,
  "\u2581Babilonului": 516,
  "\u2581mila": 517,
  "\u2581numar": 518,
  "\u2581trupul": 519,
  "\u2581Tot": 520,
  "\u2581capetenia": 521,
  "\u2581altar": 522,
  "I": 523,
  "\u2581rai": 524,
  "\u2581aproape": 525,
  "\u2581piatra": 526,
  "\u2581umbla": 527,
  "\u2581drum": 528,
  "are": 529,
  "\u2581lauda": 530,
  "\u2581manca": 531,
  "\u2581C": 532,
  "\u2581merge": 533,
  "\u2581cauta": 534,
  "\u2581sfant": 535,
  "ne": 536,
  "\u2581scaunul": 537,
  "\u2581bucurie": 538,
  "\u2581zic": 539,
  "\u2581N": 540,
  "\u2581sase": 541,
  "\u2581Efraim": 542,
  "\u2581treizeci": 543,
  "\u2581Toti": 544,
  "\u2581rasarit": 545,
  "\u2581pietre": 546,
  "\u2581jos": 547,
  "\u2581La": 548,
  "\u2581coborat": 549,
  "\u2581samanta": 550,
  "\u2581batut": 551,
  "\u2581mancat": 552,
  "\u2581avut": 553,
  "\u2581acestia": 554,
  "\u2581azi": 555,
  "\u2581ispasire": 556,
  "\u2581locui": 557,
  "\u2581aratat": 558,
  "\u2581timpul": 559,
  "\u2581departe": 560,
  "\u2581ceva": 561,
  "\u2581suntem": 562,
  "\u2581luna": 563,
  "\u2581moartea": 564,
  "\u2581seminti": 565,
  "\u2581O": 566,
  "\u2581curat": 567,
  "\u2581intins": 568,
  "\u2581paine": 569,
  "\u2581marii": 570,
  "\u2581Acum": 571,
  "\u2581vii": 572,
  "\u2581primit": 573,
  "\u2581jertfe": 574,
  "\u2581preotii": 575,
  "\u2581ascultat": 576,
  "\u2581vrea": 577,
  "ea": 578,
  "\u2581zidit": 579,
  "ndu": 580,
  "\u2581facuse": 581,
  "\u2581altii": 582,
  "\u2581adevar": 583,
  "\u2581nimicit": 584,
  "\u2581Petru": 585,
  "re": 586,
  "\u2581li": 587,
  "\u2581Cum": 588,
  "\u2581Astfel": 589,
  "\u2581tabara": 590,
  "\u2581femeie": 591,
  "ei": 592,
  "\u2581raul": 593,
  "\u2581Dumnezeule": 594,
  "\u2581mama": 595,
  "\u2581alta": 596,
  "Mi": 597,
  "\u2581lupta": 598,
  "\u2581vrajmasii": 599,
  "Eu": 600,
  "\u2581darul": 601,
  "\u2581hainele": 602,
  "nd": 603,
  "\u2581manance": 604,
  "\u2581plin": 605,
  "\u2581spuna": 606,
  "\u2581sange": 607,
  "\u2581arama": 608,
  "\u2581bea": 609,
  "\u2581rusine": 610,
  "\u2581cincizeci": 611,
  "\u2581aceia": 612,
  "\u2581cetati": 613,
  "\u2581Un": 614,
  "\u2581atat": 615,
  "\u2581strans": 616,
  "\u2581miazazi": 617,
  "\u2581Beniamin": 618,
  "\u2581Cortului": 619,
  "\u2581lovit": 620,
  "\u2581Toat": 621,
  "\u2581pot": 622,
  "\u2581patruzeci": 623,
  "Daca": 624,
  "\u2581cate": 625,
  "\u2581neamuri": 626,
  "\u2581totusi": 627,
  "\u2581sai": 628,
  "\u2581ceruri": 629,
  "\u2581strigat": 630,
  "\u2581fusese": 631,
  "\u2581arata": 632,
  "\u2581miazanoapte": 633,
  "\u2581nimici": 634,
  "\u2581ales": 635,
  "\u2581iesi": 636,
  "\u2581Cei": 637,
  "\u2581stie": 638,
  "\u2581macar": 639,
  "\u2581prada": 640,
  "isi": 641,
  "\u2581intalnirii": 642,
  "\u2581fratilor": 643,
  "\u2581preotul": 644,
  "\u2581usa": 645,
  "il": 646,
  "\"": 647,
  "\u2581ardere": 648,
  "\u2581unei": 649,
  "\u2581Manase": 650,
  "\u2581astazi": 651,
  "\u2581totul": 652,
  "\u2581pornit": 653,
  "\u2581muri": 654,
  "\u2581copii": 655,
  "\u2581vi": 656,
  "\u2581scapa": 657,
  "\u2581cartea": 658,
  "\u2581trimite": 659,
  "\u2581untdelemn": 660,
  "\u2581familiile": 661,
  "\u2581Ieremia": 662,
  "\u2581faptele": 663,
  "\u2581sabie": 664,
  "\u2581multime": 665,
  "\u2581judecata": 666,
  "\u2581adevarat": 667,
  "\u2581inchinat": 668,
  "\u2581slujitorii": 669,
  "\u2581necurat": 670,
  "\u2581Ioab": 671,
  "\u2581omorat": 672,
  "Ti": 673,
  "\u2581Ioan": 674,
  "\u2581Samuel": 675,
  "\u2581vad": 676,
  "\u2581rog": 677,
  "\u2581vietii": 678,
  "\u2581ajunge": 679,
  "\u2581Im": 680,
  "\u2581dreptate": 681,
  "\u2581uitat": 682,
  "om": 683,
  "\u2581puna": 684,
  "\u2581noua": 685,
  "\u2581frica": 686,
  "\u2581oricine": 687,
  "\u2581mie": 688,
  "\u2581intrebat": 689,
  "\u2581chivotul": 690,
  "\u2581Isaac": 691,
  "\u2581casele": 692,
  "\u2581apropiat": 693,
  "\u2581buna": 694,
  "c": 695,
  "\u2581tinutul": 696,
  "\u2581preot": 697,
  "\u2581tari": 698,
  "\u2581domnul": 699,
  "\u2581ziceau": 700,
  "\u2581domnit": 701,
  "\u2581limba": 702,
  "\u2581dimineata": 703,
  "\u2581duca": 704,
  "\u2581stiti": 705,
  "\u2581vada": 706,
  "\u2581aduceti": 707,
  "\u2581cadea": 708,
  "\u2581duc": 709,
  "tru": 710,
  "\u2581manie": 711,
  "\u2581stapanire": 712,
  "Cine": 713,
  "\u2581varsta": 714,
  "\u2581pacatele": 715,
  "\u2581data": 716,
  "\u2581insa": 717,
  "\u2581Va": 718,
  "\u2581Ezechia": 719,
  "\u2581placut": 720,
  ".)": 721,
  "\u2581camp": 722,
  "\u2581ucis": 723,
  "\u2581privire": 724,
  "\u2581imparatii": 725,
  "\u2581inalta": 726,
  "\u2581filistenilor": 727,
  "\u2581neprihanit": 728,
  "\u2581asupr": 729,
  "ra": 730,
  "\u2581famili": 731,
  "\u2581legamantul": 732,
  "\u2581cunoaste": 733,
  "\u2581seara": 734,
  "\u2581aveau": 735,
  "\u2581duhul": 736,
  "\u2581Omul": 737,
  "\u2581ucenicii": 738,
  "Domnul": 739,
  "\u2581teme": 740,
  "\u2581totdeauna": 741,
  "\u2581neamurilor": 742,
  "\u2581uita": 743,
  "\u2581niciunul": 744,
  "\u2581fiti": 745,
  "Doamne": 746,
  "\u2581anume": 747,
  "\u2581imparatilor": 748,
  "\u2581stat": 749,
  "\u2581aiba": 750,
  "\u2581mananca": 751,
  "\u2581munte": 752,
  "\u2581mers": 753,
  "\u2581adunarea": 754,
  "\u2581apele": 755,
  "\u2581Israelul": 756,
  "\u2581vet": 757,
  "\u2581chip": 758,
  "\u2581alt": 759,
  "\u2581Il": 760,
  "\u2581mostenirea": 761,
  "\u2581putin": 762,
  "\u2581jumatate": 763,
  "\u2581intreg": 764,
  "\u2581argintul": 765,
  "\u2581poruncise": 766,
  "\u2581indata": 767,
  "\u2581acasa": 768,
  "\u2581stiu": 769,
  "\u2581P": 770,
  "\u2581scoate": 771,
  "\u2581arunca": 772,
  "\u2581deasupra": 773,
  "\u2581Locas": 774,
  "\u2581haina": 775,
  "\u2581Da": 776,
  "esc": 777,
  "\u2581Cu": 778,
  "ca": 779,
  "\u2581tamaie": 780,
  "n": 781,
  "\u2581ramana": 782,
  "\u2581rele": 783,
  "Du": 784,
  "\u2581felul": 785,
  "\u2581Cortul": 786,
  "\u2581popoarele": 787,
  "\u2581carnea": 788,
  "\u2581Ionatan": 789,
  "\u2581vorba": 790,
  "\u2581cerurilor": 791,
  "\u2581Imparatia": 792,
  "\u2581caile": 793,
  "\u2581binecuvantat": 794,
  "\u2581lumea": 795,
  "\u2581cerului": 796,
  "\u2581mortii": 797,
  "\u2581Ci": 798,
  "\u2581Bet": 799,
  "\u2581Sfantul": 800,
  "\u2581pacatuit": 801,
  "\u2581zicea": 802,
  "\u2581taiat": 803,
  "\u2581pacatul": 804,
  "\u2581timp": 805,
  "\u2581daruri": 806,
  "\u2581strange": 807,
  "\u2581cuvinte": 808,
  "\u2581pui": 809,
  "\u2581statea": 810,
  "\u2581aveti": 811,
  "Am": 812,
  "asca": 813,
  "\u2581anul": 814,
  "\u2581aceeasi": 815,
  "\u2581Ilie": 816,
  "sera": 817,
  "de": 818,
  "\u2581multa": 819,
  "\u2581Amon": 820,
  "\u2581frate": 821,
  "\u2581lemn": 822,
  "urile": 823,
  "\u2581Fiindca": 824,
  "\u2581vesnica": 825,
  "\u2581asemenea": 826,
  "\u2581legile": 827,
  "\u2581barbatii": 828,
  "\u2581parasit": 829,
  "\u2581Ca": 830,
  "\u2581gasi": 831,
  "\u2581noapte": 832,
  "\u2581nelegiuirea": 833,
  "\u2581intinde": 834,
  "\u2581fel": 835,
  "\u2581doisprezece": 836,
  "\u2581ocara": 837,
  "\u2581Aceasta": 838,
  "\u2581insusi": 839,
  "\u2581apus": 840,
  "\u2581altarul": 841,
  "\u2581locuit": 842,
  "\u2581Iar": 843,
  "\u2581sti": 844,
  "\u2581intelepciunea": 845,
  ")": 846,
  "\u2581morti": 847,
  "\u2581masa": 848,
  "\u2581sicli": 849,
  "\u2581cumva": 850,
  "\u2581mostenire": 851,
  "\u2581bucura": 852,
  "\u2581vorbi": 853,
  "\u2581ascuns": 854,
  "ta": 855,
  "\u2581Le": 856,
  "\u2581dea": 857,
  "\u2581odihna": 858,
  "\u2581imparati": 859,
  "\u2581intampla": 860,
  "\u2581deschis": 861,
  "\u2581Esau": 862,
  "\u2581intoarca": 863,
  "Si": 864,
  "\u2581vecie": 865,
  "\u2581Baal": 866,
  "\u2581femei": 867,
  "\u2581legamant": 868,
  "\u2581dumnezei": 869,
  "\u2581niciodata": 870,
  "\u2581barbat": 871,
  "\u2581Absalom": 872,
  "\u2581cap": 873,
  "\u2581glas": 874,
  "\u2581robului": 875,
  "\u2581striga": 876,
  "\u2581Iti": 877,
  "Te": 878,
  "\u2581dati": 879,
  "\u2581cealalta": 880,
  "\u2581deci": 881,
  "\u2581Moabului": 882,
  "\u2581pacat": 883,
  "\u2581fiica": 884,
  "\u2581trai": 885,
  "imi": 886,
  "\u2581lunii": 887,
  "\u2581mamei": 888,
  "\u2581vreo": 889,
  "\u2581nume": 890,
  "\u2581sale": 891,
  "\u2581robi": 892,
  "\u2581veci": 893,
  "\u2581Asiriei": 894,
  "\u2581Ieroboam": 895,
  "\u2581implini": 896,
  "Da": 897,
  "\u2581lucrat": 898,
  "\u2581iei": 899,
  "\u2581acelea": 900,
  "\u2581as": 901,
  "\u2581lucrarea": 902,
  "Tu": 903,
  "\u2581fetele": 904,
  "\u2581rugat": 905,
  "\u2581crezut": 906,
  "\u2581oile": 907,
  "\u2581groaza": 908,
  "\u2581vorbe": 909,
  "\u2581vede": 910,
  "\u2581prorocii": 911,
  "\u2581invata": 912,
  "\u2581Ai": 913,
  "\u2581acestuia": 914,
  "\u2581jurat": 915,
  "\u2581putut": 916,
  "\u2581prorocul": 917,
  "\u2581adica": 918,
  "\u2581raspunde": 919,
  "\u2581batranii": 920,
  "\u2581gand": 921,
  "\u2581sedea": 922,
  "\u2581mancati": 923,
  "\u2581preoti": 924,
  "\u2581apucat": 925,
  "\u2581carui": 926,
  "\u2581intuneric": 927,
  "\u2581indurarea": 928,
  "\u2581Ahab": 929,
  "\u2581lucrarile": 930,
  "\u2581locuril": 931,
  "\u2581ape": 932,
  "\u2581duh": 933,
  "\u2581dragostea": 934,
  "\u2581puternic": 935,
  "rile": 936,
  "\u2581doilea": 937,
  "\u2581multumire": 938,
  "\u2581bune": 939,
  "Voi": 940,
  "\u2581daduse": 941,
  "\u2581crede": 942,
  "\u2581omoare": 943,
  "\u2581rodul": 944,
  "\u2581preotului": 945,
  "\u2581robii": 946,
  "Unde": 947,
  "\u2581Tai": 948,
  "\u2581caruia": 949,
  "\u2581lege": 950,
  "\u2581luati": 951,
  "\u2581pieri": 952,
  "\u2581vrut": 953,
  "\u2581desavarsire": 954,
  "\u2581neamul": 955,
  "\u2581spusese": 956,
  "\u2581scrise": 957,
  "\u2581curata": 958,
  "\u2581veac": 959,
  "\u2581prihana": 960,
  "\u2581slujeasca": 961,
  "\u2581saptezeci": 962,
  "\u2581invatatura": 963,
  "\u2581cada": 964,
  "\u2581Nebucadnetar": 965,
  "\u2581dinauntru": 966,
  "\u2581boi": 967,
  "\u2581vezi": 968,
  "\u2581trup": 969,
  "\u2581vorbea": 970,
  "\u2581cerurile": 971,
  "as": 972,
  "\u2581prinsi": 973,
  "\u2581numarul": 974,
  "\u2581judeca": 975,
  "\u2581iudeilor": 976,
  "\u2581sorti": 977,
  "\u2581proroci": 978,
  "\u2581focul": 979,
  "\u2581Sai": 980,
  "\u2581fiului": 981,
  "\u2581ingropat": 982,
  "\u2581acoperit": 983,
  "\u2581levitii": 984,
  "\u2581fugit": 985,
  "\u2581groapa": 986,
  "\u2581tabarat": 987,
  "\u2581barbati": 988,
  "\u2581imparatia": 989,
  "\u2581hotarul": 990,
  "\u2581bunatatea": 991,
  "\u2581turma": 992,
  "\u2581femeia": 993,
  "\u2581barbatul": 994,
  "\u2581Preotul": 995,
  "\u2581culcat": 996,
  "\u2581fa": 997,
  "\u2581pricepere": 998,
  "\u2581treia": 999,
  "\u2581Copii": 1000,
  "ile": 1001,
  "\u2581Este": 1002,
  "\u2581cere": 1003,
  "\u2581Iordan": 1004,
  "\u2581acest": 1005,
  "\u2581fapte": 1006,
  "\u2581iubeste": 1007,
  "\u2581Elisei": 1008,
  "\u2581hrana": 1009,
  "\u2581preotilor": 1010,
  "\u2581Ii": 1011,
  "\u2581Acestia": 1012,
  "\u2581strain": 1013,
  "\u2581marea": 1014,
  "\u2581norod": 1015,
  "Scoala": 1016,
  "\u2581rana": 1017,
  "\u2581acestor": 1018,
  "\u2581pen": 1019,
  "\u2581ars": 1020,
  "\u2581Iosafat": 1021,
  "\u2581priveste": 1022,
  "\u2581Totusi": 1023,
  "\u2581vorbesc": 1024,
  "\u2581Acolo": 1025,
  "\u2581altarului": 1026,
  "\u2581Isi": 1027,
  "\u2581aprins": 1028,
  "\u2581Legii": 1029,
  "\u2581uneltele": 1030,
  "\u2581locuinta": 1031,
  "\u2581semn": 1032,
  "\u2581gata": 1033,
  "\u2581coboara": 1034,
  "\u2581arderi": 1035,
  "\u2581chema": 1036,
  "\u2581imbracat": 1037,
  "\u2581vreun": 1038,
  "\u2581Babilon": 1039,
  "\u2581mort": 1040,
  "\u2581stapanului": 1041,
  "\u2581mortilor": 1042,
  "\u2581legamantului": 1043,
  "\u2581V": 1044,
  "Fiul": 1045,
  "\u2581stapanul": 1046,
  "\u2581psalm": 1047,
  "\u2581stanca": 1048,
  "\u2581plece": 1049,
  "\u2581jertfele": 1050,
  "\u2581c": 1051,
  "\u2581intelepciune": 1052,
  "\u2581izbavit": 1053,
  "\u2581imprejurimile": 1054,
  "\u2581varful": 1055,
  "\u2581masura": 1056,
  "\u2581acesteia": 1057,
  "\u2581slujitori": 1058,
  "\u2581cunosc": 1059,
  "\u2581dai": 1060,
  "\u2581opt": 1061,
  "\u2581vreau": 1062,
  "\u2581Lege": 1063,
  "\u2581arde": 1064,
  "\u2581robie": 1065,
  "\u2581satele": 1066,
  "\u2581Mei": 1067,
  "\u2581voia": 1068,
  "\u2581purta": 1069,
  "\u2581bautura": 1070,
  "\u2581ceasul": 1071,
  "\u2581clipa": 1072,
  "\u2581Levi": 1073,
  "\u2581neprihanirea": 1074,
  "or": 1075,
  "\u2581stau": 1076,
  "\u2581maniat": 1077,
  "\u2581grau": 1078,
  "\u2581Templu": 1079,
  "\u2581implineasca": 1080,
  "\u2581temnita": 1081,
  "\u2581Sionului": 1082,
  "\u2581mistuit": 1083,
  "\u2581ajutor": 1084,
  "\u2581pun": 1085,
  "\u2581prins": 1086,
  "\u2581cantare": 1087,
  "\u2581miei": 1088,
  "\u2581haine": 1089,
  "\u2581Samaria": 1090,
  "\u2581sfinte": 1091,
  "\u2581lumii": 1092,
  "\u2581veselie": 1093,
  "\u2581inimii": 1094,
  "\u2581Vai": 1095,
  "\u2581stare": 1096,
  "\u2581fuga": 1097,
  "\u2581viteji": 1098,
  "\u2581avem": 1099,
  "\u2581legat": 1100,
  "rii": 1101,
  "\u2581carne": 1102,
  "\u2581eram": 1103,
  "\u2581mic": 1104,
  "\u2581umplut": 1105,
  "\u2581levitilor": 1106,
  "ste": 1107,
  "\u2581plina": 1108,
  "\u2581binele": 1109,
  "De": 1110,
  "\u2581aduc": 1111,
  "\u2581ascultati": 1112,
  "\u2581intamplat": 1113,
  "\u2581atinge": 1114,
  "\u2581aurul": 1115,
  "\u2581bate": 1116,
  "\u2581saptea": 1117,
  "\u2581Ve": 1118,
  "\u2581dreptul": 1119,
  "\u2581stii": 1120,
  "\u2581stateau": 1121,
  "\u2581facute": 1122,
  "\u2581Ierusalimul": 1123,
  "\u2581Prin": 1124,
  "\u2581inaltat": 1125,
  "\u2581Galaad": 1126,
  "\u2581tinut": 1127,
  "\u2581suie": 1128,
  "\u2581varsa": 1129,
  "\u2581locuieste": 1130,
  "\u2581adevarul": 1131,
  "\u2581stapani": 1132,
  "\u2581oprit": 1133,
  "\u2581scapat": 1134,
  "\u2581ostirii": 1135,
  "\u2581vrajmas": 1136,
  "\u2581mantuirea": 1137,
  "\u2581dreptatea": 1138,
  "\u2581idolii": 1139,
  "\u2581umple": 1140,
  "\u2581portii": 1141,
  "\u2581Ti": 1142,
  "s": 1143,
  "\u2581Balaam": 1144,
  "\u2581locuiesc": 1145,
  "\u2581oasele": 1146,
  "\u2581sora": 1147,
  "\u2581vitel": 1148,
  "pre": 1149,
  "\u2581baut": 1150,
  "\u2581ostirea": 1151,
  "\u2581afla": 1152,
  "\u2581acelasi": 1153,
  "\u2581pustiul": 1154,
  "\u2581douasprezece": 1155,
  "\u2581popoare": 1156,
  "\u2581vitele": 1157,
  "\u2581roade": 1158,
  "\u2581ispravit": 1159,
  "\u2581auzi": 1160,
  "\u2581ajutorul": 1161,
  "\u2581intregi": 1162,
  "\u2581sezut": 1163,
  "\u2581armele": 1164,
  "\u2581tarana": 1165,
  "\u2581belsug": 1166,
  "\u2581cinstea": 1167,
  "\u2581sluji": 1168,
  "locuiasca": 1169,
  "\u2581rob": 1170,
  "\u2581culca": 1171,
  "sa": 1172,
  "\u2581pret": 1173,
  "\u2581Eleazar": 1174,
  "\u2581mearga": 1175,
  "\u2581cunostinta": 1176,
  "\u2581vorbeasca": 1177,
  "\u2581ochi": 1178,
  "\u2581capetenii": 1179,
  "\u2581Ruben": 1180,
  "\u2581dincolo": 1181,
  "\u2581roadele": 1182,
  "\u2581vedeti": 1183,
  "\u2581minte": 1184,
  "\u2581fier": 1185,
  "\u2581Poporul": 1186,
  "\u2581neprihaniti": 1187,
  "\u2581Daniel": 1188,
  "\u2581iesiti": 1189,
  "\u2581ziceti": 1190,
  "\u2581sui": 1191,
  "\u2581Gad": 1192,
  "\u2581apropie": 1193,
  "\u2581vrajmasi": 1194,
  "\u2581p": 1195,
  "\u2581inseamna": 1196,
  "\u2581stanga": 1197,
  "\u2581cinste": 1198,
  "\u2581urgia": 1199,
  "\u2581apuca": 1200,
  "\u2581chipul": 1201,
  "\u2581hotarat": 1202,
  "\u2581spui": 1203,
  "\u2581prea": 1204,
  "\u2581dragoste": 1205,
  "\u2581pedepsit": 1206,
  "\u2581valea": 1207,
  "Oprire": 1208,
  "\u2581cortul": 1209,
  "\u2581celalalt": 1210,
  "\u2581nadejdea": 1211,
  "\u2581gaseste": 1212,
  "\u2581corabie": 1213,
  "\u2581Dan": 1214,
  "\u2581intelept": 1215,
  "\u2581aduci": 1216,
  "\u2581Locuint": 1217,
  "\u2581vestit": 1218,
  "\u2581trebuia": 1219,
  "\u2581calca": 1220,
  "\u2581trecere": 1221,
  "\u2581cheama": 1222,
  "\u2581pedepsi": 1223,
  "\u2581fagaduinta": 1224,
  "\u2581mainilor": 1225,
  "\u2581carora": 1226,
  "\u2581sfanta": 1227,
  "\u2581Mai": 1228,
  "\u2581capatat": 1229,
  "\u2581alte": 1230,
  "\u2581vinovat": 1231,
  "\u2581canta": 1232,
  "N": 1233,
  "\u2581rostit": 1234,
  "\u2581intocmai": 1235,
  "\u2581iudeii": 1236,
  "\u2581muntii": 1237,
  "Ma": 1238,
  "\u2581necaz": 1239,
  "\u2581caror": 1240,
  "\u2581proroc": 1241,
  "\u2581Ingerul": 1242,
  "\u2581saizeci": 1243,
  "\u2581portile": 1244,
  "\u2581tem": 1245,
  "\u2581izgonit": 1246,
  "\u2581scape": 1247,
  "\u2581preface": 1248,
  "\u2581dumnezeii": 1249,
  "\u2581vant": 1250,
  "\u2581omori": 1251,
  "\u2581leviti": 1252,
  "Este": 1253,
  "\u2581Simon": 1254,
  "\u2581zid": 1255,
  "In": 1256,
  "\u2581painea": 1257,
  "\u2581toiagul": 1258,
  "cat": 1259,
  "\u2581umbra": 1260,
  "\u2581porunci": 1261,
  "\u2581varsat": 1262,
  "\u2581Evanghelia": 1263,
  "\u2581untdelemnul": 1264,
  "\u2581inviat": 1265,
  "\u2581vesti": 1266,
  "\u2581pazit": 1267,
  "\u2581uscat": 1268,
  "zi": 1269,
  "\u2581par": 1270,
  "\u2581viu": 1271,
  "\u2581trebui": 1272,
  "\u2581cade": 1273,
  "\u2581odai": 1274,
  "\u2581pline": 1275,
  "\u2581stire": 1276,
  "\u2581Ioas": 1277,
  "\u2581grija": 1278,
  "\u2581soarelui": 1279,
  "\u2581Sabatului": 1280,
  "tul": 1281,
  "\u2581moara": 1282,
  "\u2581zica": 1283,
  "\u2581grasimea": 1284,
  "\u2581implinit": 1285,
  "\u2581bucuria": 1286,
  "\u2581lume": 1287,
  "\u2581pregatit": 1288,
  "\u2581vrei": 1289,
  "\u2581iasa": 1290,
  "\u2581berbeci": 1291,
  "\u2581Iehu": 1292,
  "\u2581ploaie": 1293,
  "\u2581treilea": 1294,
  "\u2581sanatate": 1295,
  "\u2581pantecele": 1296,
  "\u2581foamete": 1297,
  "\u2581norodului": 1298,
  "\u2581Oare": 1299,
  "\u2581femeile": 1300,
  "\u2581intaiul": 1301,
  "\u2581scula": 1302,
  "\u2581pazi": 1303,
  "\u2581Acesta": 1304,
  "\u2581iubit": 1305,
  "\u2581calcat": 1306,
  "\u2581spuneti": 1307,
  "\u2581ascunde": 1308,
  "\u2581Abimelec": 1309,
  "\u2581partile": 1310,
  "\u2581Templului": 1311,
  "partea": 1312,
  "\u2581sfaramat": 1313,
  "\u2581marginea": 1314,
  "\u2581soli": 1315,
  "\u2581munti": 1316,
  "\u2581caute": 1317,
  "\u2581intarit": 1318,
  "la": 1319,
  "\u2581savarsit": 1320,
  "\u2581amandoi": 1321,
  "\u2581copilul": 1322,
  "\u2581iarba": 1323,
  "\u2581naste": 1324,
  "\u2581buzele": 1325,
  "...": 1326,
  "\u2581altuia": 1327,
  "\u2581piciorul": 1328,
  "\u2581curtea": 1329,
  "\u2581maniei": 1330,
  "\u2581fruntea": 1331,
  "\u2581cautat": 1332,
  "\u2581locuia": 1333,
  "\u2581lepadat": 1334,
  "\u2581neprihanire": 1335,
  "\u2581binecuvanta": 1336,
  "\u2581vie": 1337,
  "\u2581pre": 1338,
  "\u2581Zedechia": 1339,
  "\u2581iubesc": 1340,
  "\u2581pedeapsa": 1341,
  "\u2581Noi": 1342,
  "\u2581Avram": 1343,
  "\u2581capului": 1344,
  "Ferice": 1345,
  "\u2581laude": 1346,
  "\u2581temeti": 1347,
  "\u2581plata": 1348,
  "\u2581primi": 1349,
  "\u2581vita": 1350,
  "\u2581intorc": 1351,
  "\u2581Betel": 1352,
  "\u2581urmatoarea": 1353,
  "\u2581Cat": 1354,
  "\u2581urmat": 1355,
  "\u2581numaratoare": 1356,
  "\u2581nelegiuire": 1357,
  "\u2581berbec": 1358,
  "\u2581oi": 1359,
  "\u2581capete": 1360,
  "\u2581primeste": 1361,
  "\u2581treaca": 1362,
  "\u2581roaba": 1363,
  "\u2581izbavi": 1364,
  "r": 1365,
  "Cand": 1366,
  "\u2581frati": 1367,
  "\u2581inalt": 1368,
  "\u2581sfarsit": 1369,
  "ri": 1370,
  "\u2581facea": 1371,
  "\u2581T": 1372,
  "\u2581Pilat": 1373,
  "\u2581pasarile": 1374,
  "\u2581capat": 1375,
  "\u2581fiicele": 1376,
  "\u2581ceata": 1377,
  "\u2581poata": 1378,
  "\u2581Chi": 1379,
  "\u2581nor": 1380,
  "\u2581inchina": 1381,
  "\u2581intrare": 1382,
  "\u2581rugaciunea": 1383,
  "\u2581Isaia": 1384,
  "\u2581cusur": 1385,
  "\u2581inimile": 1386,
  "\u2581urechea": 1387,
  "\u2581teama": 1388,
  "\u2581Templul": 1389,
  "\u2581soarele": 1390,
  "\u2581Oamenii": 1391,
  "\u2581inauntru": 1392,
  "\u2581ni": 1393,
  "\u2581maini": 1394,
  "\u2581vitei": 1395,
  "\u2581iudei": 1396,
  "\u2581rod": 1397,
  "O": 1398,
  "\u2581semintie": 1399,
  "\u2581zici": 1400,
  "\u2581Mica": 1401,
  "\u2581privirile": 1402,
  "\u2581sfarsitul": 1403,
  "\u2581plans": 1404,
  "\u2581nevestele": 1405,
  "\u2581pazeste": 1406,
  "\u2581semintiile": 1407,
  "\u2581abatut": 1408,
  "\u2581masurat": 1409,
  "\u2581lipsa": 1410,
  "\u2581Unul": 1411,
  "\u2581vrednic": 1412,
  "\u2581fiecaruia": 1413,
  "\u2581strigate": 1414,
  "and": 1415,
  "\u2581cale": 1416,
  "\u2581ucisi": 1417,
  "\u2581stalpii": 1418,
  "\u2581rupt": 1419,
  "\u2581clatina": 1420,
  "\u2581nenorocirea": 1421,
  "\u2581Laban": 1422,
  "\u2581lucreaza": 1423,
  "\u2581Iov": 1424,
  "\u2581scoata": 1425,
  "\u2581celelalte": 1426,
  "\u2581fiarele": 1427,
  "\u2581leu": 1428,
  "\u2581slujit": 1429,
  "\u2581trimit": 1430,
  "\u2581veste": 1431,
  "\u2581facand": 1432,
  "\u2581adaugat": 1433,
  "el": 1434,
  "\u2581Sion": 1435,
  "\u2581bunavointa": 1436,
  "\u2581Abner": 1437,
  "\u2581harul": 1438,
  "\u2581turmele": 1439,
  "\u2581case": 1440,
  "\u2581Maria": 1441,
  "\u2581scrie": 1442,
  "\u2581mananci": 1443,
  "Un": 1444,
  "\u2581oaste": 1445,
  "\u2581joc": 1446,
  "da": 1447,
  "\u2581luni": 1448,
  "\u2581tanar": 1449,
  "\u2581una": 1450,
  "\u2581minuni": 1451,
  "\u2581ceilalti": 1452,
  "\u2581cantaretilor": 1453,
  "\u2581Zaharia": 1454,
  "\u2581barbateasca": 1455,
  "\u2581capeteniilor": 1456,
  "\u2581pilda": 1457,
  "\u2581satura": 1458,
  "\u2581trambita": 1459,
  "\u2581deloc": 1460,
  "\u2581adapost": 1461,
  "\u2581Nimeni": 1462,
  "\u2581parasi": 1463,
  "\u2581porti": 1464,
  "sul": 1465,
  "\u2581fetei": 1466,
  "dimineata": 1467,
  "\u2581Aceste": 1468,
  "\u2581tin": 1469,
  "\u2581mergea": 1470,
  "\u2581Mardoheu": 1471,
  "\u2581Ioram": 1472,
  "\u2581nadejde": 1473,
  "\u2581adunat": 1474,
  "\u2581indurare": 1475,
  "\u2581cununa": 1476,
  "\u2581norodul": 1477,
  "\u2581nimiceasca": 1478,
  "Ia": 1479,
  "\u2581aproapelui": 1480,
  "\u2581baga": 1481,
  "\u2581scot": 1482,
  "\u2581uns": 1483,
  "\u2581atins": 1484,
  "\u2581lase": 1485,
  "\u2581stapanirea": 1486,
  "\"?": 1487,
  "\u2581sabiei": 1488,
  "\u2581miel": 1489,
  "\u2581nevinovat": 1490,
  "\u2581urasc": 1491,
  "\u2581cerut": 1492,
  "\u2581popoarelor": 1493,
  "\u2581capata": 1494,
  "\u2581Iosia": 1495,
  "\u2581muntelui": 1496,
  "\u2581pierde": 1497,
  "\u2581e": 1498,
  "\u2581Numai": 1499,
  "\u2581credincios": 1500,
  "\u2581capetenie": 1501,
  "\u2581nimiciti": 1502,
  "\u2581tras": 1503,
  "S": 1504,
  "\u2581asculte": 1505,
  "sus": 1506,
  "Duceti": 1507,
  "\u2581acestei": 1508,
  "\u2581Acela": 1509,
  "\u2581Preainalt": 1510,
  "\u2581Atotputernic": 1511,
  "\u2581invete": 1512,
  "\u2581Iordanul": 1513,
  "\u2581Iordanului": 1514,
  "!\",": 1515,
  "\u2581ramasita": 1516,
  "\u2581Deci": 1517,
  "\u2581facem": 1518,
  "\u2581dis": 1519,
  "\u2581pacea": 1520,
  "\u2581im": 1521,
  "\u2581venea": 1522,
  "\u2581inger": 1523,
  "\u2581aflat": 1524,
  "\u2581straini": 1525,
  "\u2581arate": 1526,
  "Orice": 1527,
  "\u2581stalpi": 1528,
  "\u2581stea": 1529,
  "\u2581alege": 1530,
  "\u2581lovi": 1531,
  "\u2581paziti": 1532,
  "\u2581invatat": 1533,
  "\u2581subtire": 1534,
  "\u2581Preotii": 1535,
  "\u2581jale": 1536,
  "\u2581nenorocire": 1537,
  "\u2581Noe": 1538,
  "\u2581stim": 1539,
  "\u2581vesnic": 1540,
  "\u2581taria": 1541,
  "\u2581Era": 1542,
  "\u2581rautatea": 1543,
  "\u2581lipsit": 1544,
  "Cum": 1545,
  "\u2581cuvant": 1546,
  "\u2581Roboam": 1547,
  "\u2581sfinti": 1548,
  "\u2581faradelegile": 1549,
  "\u2581ucenicilor": 1550,
  "\u2581deschide": 1551,
  "\u2581scapare": 1552,
  "\u2581turnat": 1553,
  "intre": 1554,
  "\u2581Sunt": 1555,
  "\u2581martor": 1556,
  "\u2581vandut": 1557,
  "\u2581filistenii": 1558,
  "\u2581sarac": 1559,
  "\u2581miros": 1560,
  "\u2581cerul": 1561,
  "\u2581Amin": 1562,
  "\u2581nebun": 1563,
  "\u2581potrivnici": 1564,
  "\u2581gol": 1565,
  "\u2581Tadoc": 1566,
  "\u2581Iehoiada": 1567,
  "\u2581Galileea": 1568,
  "\u2581amoritilor": 1569,
  "\u2581curand": 1570,
  "\u2581prorocilor": 1571,
  "\u2581acopera": 1572,
  "\u2581faceau": 1573,
  "\u2581miere": 1574,
  "\u2581aflau": 1575,
  "\u2581alergat": 1576,
  "\u2581adormit": 1577,
  "\u2581pastrat": 1578,
  "\u2581arda": 1579,
  "\u2581nenorocit": 1580,
  "\u2581izgoni": 1581,
  "\u2581inaltimea": 1582,
  "\u2581singura": 1583,
  "\u2581vestea": 1584,
  "\u2581acesti": 1585,
  "\u2581vederea": 1586,
  "\u2581Marea": 1587,
  "Vorbeste": 1588,
  "\u2581zidi": 1589,
  "\u2581Drept": 1590,
  "\u2581Sihem": 1591,
  "\u2581oara": 1592,
  "\u2581pazesc": 1593,
  "\u2581ogorul": 1594,
  "\u2581auzul": 1595,
  "\u2581invataturile": 1596,
  "\u2581ochiul": 1597,
  "\u2581imparateasca": 1598,
  "\u2581minunile": 1599,
  "\u2581scoala": 1600,
  "\u2581aceluia": 1601,
  "\u2581lucrare": 1602,
  "\u2581sfintit": 1603,
  "\u2581credeti": 1604,
  "\u2581unor": 1605,
  "\u2581vinul": 1606,
  "\u2581Ia": 1607,
  "\u2581taie": 1608,
  "\u2581Hristosul": 1609,
  "\u2581intarite": 1610,
  "\u2581adunarii": 1611,
  "\u2581vechi": 1612,
  "\u2581alti": 1613,
  "\u2581urmasi": 1614,
  "\u2581tina": 1615,
  "\u2581altora": 1616,
  "\u2581Azaria": 1617,
  "\u2581insumi": 1618,
  "\u2581Siriei": 1619,
  "\u2581traiasca": 1620,
  "\u2581Canaanului": 1621,
  "\u2581sulita": 1622,
  "\u2581paraul": 1623,
  "\u2581Neftali": 1624,
  "\u2581urechile": 1625,
  "\u2581robilor": 1626,
  "\u2581ingaduit": 1627,
  "\u2581numaratoarea": 1628,
  "\u2581purtat": 1629,
  "\u2581Fiecare": 1630,
  "\u2581talanti": 1631,
  "A": 1632,
  "\u2581Vor": 1633,
  "Cu": 1634,
  "\u2581tata": 1635,
  "\u2581trage": 1636,
  "\u2581semne": 1637,
  "\u2581poti": 1638,
  "\u2581auda": 1639,
  "\u2581adunari": 1640,
  "\u2581Simeon": 1641,
  "\u2581Zabulon": 1642,
  "\u2581domneasca": 1643,
  "\u2581Ghedeon": 1644,
  "\u2581trupurile": 1645,
  "\u2581curtii": 1646,
  "\u2581bucata": 1647,
  "\u2581adunare": 1648,
  "\u2581vazand": 1649,
  "\u2581piele": 1650,
  "\u2581maine": 1651,
  "\u2581ierta": 1652,
  "\u2581vantul": 1653,
  "\u2581neveste": 1654,
  "\u2581is": 1655,
  "d": 1656,
  "\u2581carte": 1657,
  "\u2581mantuit": 1658,
  "\u2581incredintat": 1659,
  "\u2581legea": 1660,
  "\u2581iese": 1661,
  "\u2581sfarama": 1662,
  "\u2581place": 1663,
  "\u2581Hebron": 1664,
  "tocmai": 1665,
  "\u2581ciuma": 1666,
  "\u2581locuitorilor": 1667,
  "\u2581voua": 1668,
  "\u2581zidurile": 1669,
  "\u2581uraciunile": 1670,
  "\u2581Ucenicii": 1671,
  "\u2581dumnezeilor": 1672,
  "\u2581gradina": 1673,
  "\u2581drepte": 1674,
  "\u2581greutate": 1675,
  "\u2581Laudati": 1676,
  "\u2581smerit": 1677,
  "\u2581pierit": 1678,
  "\u2581Adu": 1679,
  "\u2581infatisare": 1680,
  "\u2581fete": 1681,
  "\u2581vas": 1682,
  "\u2581saraci": 1683,
  "\u2581urmarit": 1684,
  "\u2581vite": 1685,
  "\u2581lasati": 1686,
  "\u2581duceti": 1687,
  "\u2581inconjurat": 1688,
  "\u2581aude": 1689,
  "\u2581puneti": 1690,
  "\u2581Adevarat": 1691,
  "\u2581copil": 1692,
  "\u2581Izreel": 1693,
  "\u2581Ismael": 1694,
  "\u2581pazeasca": 1695,
  "\u2581nelegiuirile": 1696,
  "\u2581puteti": 1697,
  "\u2581traieste": 1698,
  "\u2581zidul": 1699,
  "\u2581Haman": 1700,
  "\u2581Simei": 1701,
  "\u2581prorocului": 1702,
  "\u2581cobori": 1703,
  "\u2581descoperit": 1704,
  "\u2581Asculta": 1705,
  "\u2581priviti": 1706,
  "\u2581curge": 1707,
  "\u2581credinciosia": 1708,
  "\u2581trambite": 1709,
  "\u2581floarea": 1710,
  "\u2581bolnav": 1711,
  "\".": 1712,
  "\u2581Nume": 1713,
  "\u2581folos": 1714,
  "\u2581doar": 1715,
  "\u2581buni": 1716,
  "\u2581aud": 1717,
  "\u2581patul": 1718,
  "\u2581voie": 1719,
  "\u2581adu": 1720,
  "\u2581bata": 1721,
  "\u2581fugi": 1722,
  "\u2581Spune": 1723,
  "Oare": 1724,
  "\u2581bucati": 1725,
  "\u2581insuti": 1726,
  "\u2581aducere": 1727,
  "\u2581vestesc": 1728,
  "\u2581batrani": 1729,
  "\u2581gurii": 1730,
  "\u2581cearta": 1731,
  "\u2581stiinta": 1732,
  "\u2581ravna": 1733,
  "\u2581apelor": 1734,
  "\u2581inaltimile": 1735,
  "\u2581vrajmasului": 1736,
  "\u2581urechi": 1737,
  "\u2581randuit": 1738,
  "\u2581vorbind": 1739,
  "\u2581mijloc": 1740,
  "\u2581impartit": 1741,
  "\u2581taiati": 1742,
  "\u2581idoli": 1743,
  "\u2581purtare": 1744,
  "\u2581ispravi": 1745,
  "\u2581Madian": 1746,
  "\u2581Locasul": 1747,
  "\u2581mormant": 1748,
  "\u2581duci": 1749,
  "\u2581deoparte": 1750,
  "\u2581temut": 1751,
  "\u2581cunosti": 1752,
  "\u2581fantana": 1753,
  "\u2581Asaf": 1754,
  "\u2581patrulea": 1755,
  "\u2581Ghibeea": 1756,
  "\u2581corturile": 1757,
  "\u2581batranilor": 1758,
  "\u2581slavei": 1759,
  "\u2581vrajmasul": 1760,
  "\u2581cautati": 1761,
  "\u2581efa": 1762,
  "in": 1763,
  "\u2581moare": 1764,
  "\u2581ucide": 1765,
  "\u2581incredere": 1766,
  "\u2581tremura": 1767,
  "\u2581vis": 1768,
  "\u2581fiice": 1769,
  "\u2581ruga": 1770,
  "\u2581Pan": 1771,
  "\u2581insarcinata": 1772,
  "\u2581supus": 1773,
  "\u2581Locul": 1774,
  "\u2581abate": 1775,
  "\u2581necurmat": 1776,
  "Seba": 1777,
  "\u2581cenusa": 1778,
  "\u2581Natan": 1779,
  "\u2581Aser": 1780,
  "\u2581goliciunea": 1781,
  "\u2581Ascultati": 1782,
  "\u2581lepra": 1783,
  "\u2581idolilor": 1784,
  "\u2581izbaveste": 1785,
  "\u2581Balac": 1786,
  "\u2581ingerul": 1787,
  "\u2581proroceste": 1788,
  "\u2581greu": 1789,
  "\u2581campului": 1790,
  "\u2581deodata": 1791,
  "\u2581framantat": 1792,
  "\u2581bogat": 1793,
  "\u2581graul": 1794,
  "\u2581inchis": 1795,
  "\u2581descoperi": 1796,
  "\u2581potrivit": 1797,
  "\u2581cobora": 1798,
  "\u2581citit": 1799,
  "\u2581vinde": 1800,
  "\u2581inalte": 1801,
  "\u2581intelepti": 1802,
  "ci": 1803,
  "\u2581minciuni": 1804,
  "\u2581lat": 1805,
  "\u2581Ben": 1806,
  "\u2581cot": 1807,
  "\u2581umblat": 1808,
  "\u2581ducea": 1809,
  "\u2581locuri": 1810,
  "\u2581martori": 1811,
  "\u2581pat": 1812,
  "\u2581paini": 1813,
  "ia": 1814,
  "\u2581pielea": 1815,
  "Ca": 1816,
  "\u2581nascuti": 1817,
  "\u2581Ahaz": 1818,
  "\u2581odinioara": 1819,
  "\u2581Isahar": 1820,
  "\u2581Irod": 1821,
  "\u2581haldeilor": 1822,
  "\u2581crescut": 1823,
  "\u2581alearga": 1824,
  "\u2581Edomului": 1825,
  "\u2581curatat": 1826,
  "\u2581Faraon": 1827,
  "\u2581aripile": 1828,
  "\u2581pacatului": 1829,
  "\u2581ajunga": 1830,
  "\u2581Tatalui": 1831,
  "\u2581strigatele": 1832,
  "\u2581fapta": 1833,
  "\u2581Isai": 1834,
  "\u2581beau": 1835,
  "\u2581puteri": 1836,
  "\u2581tie": 1837,
  "at": 1838,
  "oare": 1839,
  "\u2581trait": 1840,
  "\u2581heruvimi": 1841,
  "\u2581Luati": 1842,
  "\u2581Fa": 1843,
  "esti": 1844,
  "\u2581Ne": 1845,
  "\u2581bratul": 1846,
  "\u2581Benaia": 1847,
  "\u2581pasunat": 1848,
  "\u2581Ahazia": 1849,
  "\u2581degraba": 1850,
  "\u2581marginile": 1851,
  "\u2581putem": 1852,
  "\u2581mormantul": 1853,
  "\u2581vremurile": 1854,
  "\u2581cedru": 1855,
  "Vino": 1856,
  "\u2581Samson": 1857,
  "\u2581frumoasa": 1858,
  "\u2581judecatile": 1859,
  "\u2581gandurile": 1860,
  "\u2581corabia": 1861,
  "\u2581venire": 1862,
  "\u2581neamului": 1863,
  "\u2581imparate": 1864,
  "\u2581incolo": 1865,
  "\u2581car": 1866,
  "\u2581arcul": 1867,
  "\u2581soare": 1868,
  "\u2581slujitor": 1869,
  "\u2581acoperi": 1870,
  "\u2581lemne": 1871,
  "\u2581infatisat": 1872,
  "\u2581sarbatoarea": 1873,
  "\u2581dobitoace": 1874,
  "\u2581facusera": 1875,
  "\u2581boii": 1876,
  "\u2581faptul": 1877,
  "\u2581inaltimi": 1878,
  "\u2581Ioiachim": 1879,
  "\u2581Semaia": 1880,
  "\u2581sfatul": 1881,
  "\u2581vaduva": 1882,
  "\u2581parul": 1883,
  "\u2581ingeri": 1884,
  "\u2581Femeia": 1885,
  "\u2581apropia": 1886,
  "\u2581imbraca": 1887,
  "\u2581scumpe": 1888,
  "sc": 1889,
  "\u2581pietrele": 1890,
  "\u2581rugaciune": 1891,
  "\u2581rupe": 1892,
  "\u2581cantari": 1893,
  "\u2581sapat": 1894,
  "\u2581pustiit": 1895,
  "\u2581iesea": 1896,
  "\u2581netaiat": 1897,
  "\u2581filisteni": 1898,
  "\u2581nevestei": 1899,
  "\u2581Sabat": 1900,
  "\u2581scaun": 1901,
  "\u2581via": 1902,
  "\u2581batran": 1903,
  "\u2581repede": 1904,
  "\u2581merinde": 1905,
  "\u2581Samariei": 1906,
  "\u2581roage": 1907,
  "\u2581vistieriile": 1908,
  "\u2581vesmintele": 1909,
  "\u2581faina": 1910,
  "\u2581injunghie": 1911,
  "\u2581Core": 1912,
  "\u2581Gat": 1913,
  "\u2581Galaadului": 1914,
  "\u2581amandoua": 1915,
  "\u2581incins": 1916,
  "\u2581rasplata": 1917,
  "\u2581degetul": 1918,
  "\u2581insisi": 1919,
  "Invatatorule": 1920,
  "\u2581campia": 1921,
  "\u2581intunericul": 1922,
  "\u2581despr": 1923,
  "Ascultati": 1924,
  "\u2581creste": 1925,
  "\u2581trupului": 1926,
  "\u2581Canaan": 1927,
  "\u2581cheme": 1928,
  "\u2581imparatie": 1929,
  "\u2581hotararea": 1930,
  "\u2581lepada": 1931,
  "\u2581Rama": 1932,
  "\u2581pretul": 1933,
  "\u2581nastere": 1934,
  "\u2581altor": 1935,
  "\u2581judecati": 1936,
  "\u2581campie": 1937,
  "\u2581bani": 1938,
  "\u2581judecator": 1939,
  "\u2581calareti": 1940,
  "\u2581facuta": 1941,
  "\u2581arderil": 1942,
  "\u2581rea": 1943,
  "\u2581paharul": 1944,
  "\u2581mergeau": 1945,
  "\u2581pusese": 1946,
  "\u2581Amatia": 1947,
  "\u2581optzeci": 1948,
  "\u2581traiesc": 1949,
  "\u2581bunavoie": 1950,
  "\u2581dimprejur": 1951,
  "\u2581inconjoara": 1952,
  "\u2581sadit": 1953,
  "\u2581sfintilor": 1954,
  "\u2581merg": 1955,
  "\u2581spaima": 1956,
  "\u2581incetat": 1957,
  "\u2581faptura": 1958,
  "\u2581barbatilor": 1959,
  "\u2581pleca": 1960,
  "\u2581Neamurile": 1961,
  "\u2581chivotului": 1962,
  "\u2581putina": 1963,
  "\u2581stia": 1964,
  "\u2581ba": 1965,
  "\u2581Duhului": 1966,
  "\u2581semnul": 1967,
  "\u2581nevoie": 1968,
  "\u2581iau": 1969,
  "\u2581paste": 1970,
  "\u2581Beer": 1971,
  "\u2581Oricine": 1972,
  "\u2581sarbatoare": 1973,
  "\u2581carele": 1974,
  "\u2581pustii": 1975,
  "\u2581acestui": 1976,
  "\u2581lung": 1977,
  "\u2581acopere": 1978,
  "\u2581fiind": 1979,
  "\u2581aseza": 1980,
  "\u2581Filip": 1981,
  "\u2581spurcat": 1982,
  "\u2581ucenici": 1983,
  "\u2581inchinati": 1984,
  "\u2581Sara": 1985,
  "\u2581castig": 1986,
  "\u2581Silo": 1987,
  "\u2581schimbat": 1988,
  "\u2581Liban": 1989,
  "\u2581Damasc": 1990,
  "\u2581Urie": 1991,
  "\u2581robiei": 1992,
  "\u2581Ghilgal": 1993,
  "pe": 1994,
  "\u2581gasesc": 1995,
  "\u2581Indata": 1996,
  "andu": 1997,
  "\u2581pleaca": 1998,
  "\u2581Caleb": 1999,
  "\u2581imbracati": 2000,
  "\u2581Lot": 2001,
  "\u2581negresit": 2002,
  "\u2581Estera": 2003,
  "\u2581dorinta": 2004,
  "\u2581urat": 2005,
  "\u2581Sinai": 2006,
  "\u2581tapi": 2007,
  "\u2581cuprins": 2008,
  "ara": 2009,
  "\u2581alesi": 2010,
  "\u2581paza": 2011,
  "\u2581femeii": 2012,
  "\u2581spalat": 2013,
  "\u2581mici": 2014,
  "\u2581vedere": 2015,
  "\u2581pangarit": 2016,
  "\u2581locuitori": 2017,
  "\u2581bucurat": 2018,
  "\u2581indreptat": 2019,
  "\u2581lupte": 2020,
  "\u2581zeciuiala": 2021,
  "\u2581strajerilor": 2022,
  "\u2581pacatelor": 2023,
  "\u2581panda": 2024,
  "\u2581temeliile": 2025,
  "\u2581neprihanirii": 2026,
  "\u2581muntilor": 2027,
  "\u2581slujitorul": 2028,
  "\u2581dobitoacele": 2029,
  "\u2581zisese": 2030,
  "\u2581ascuti": 2031,
  "\u2581taina": 2032,
  "\u2581luase": 2033,
  "\u2581Poate": 2034,
  "\u2581veniti": 2035,
  "Acesta": 2036,
  "\u2581inaintat": 2037,
  "alta": 2038,
  "it": 2039,
  "!...": 2040,
  "\u2581intreba": 2041,
  "\u2581Rau": 2042,
  "\u2581nori": 2043,
  "\u2581prefacut": 2044,
  "\u2581necurate": 2045,
  "\u2581bogatii": 2046,
  "\u2581spini": 2047,
  "Sunt": 2048,
  "\u2581jugul": 2049,
  "\u2581insarcinat": 2050,
  "\u2581singuri": 2051,
  "\u2581incred": 2052,
  "\u2581secera": 2053,
  "\u2581cumparat": 2054,
  "\u2581Seir": 2055,
  "\u2581slujiti": 2056,
  "\u2581atata": 2057,
  "\u2581Merari": 2058,
  "\u2581Iudeea": 2059,
  "\u2581roua": 2060,
  "\u2581socoteala": 2061,
  "\u2581stapan": 2062,
  "\u2581egiptenilor": 2063,
  "\u2581saptelea": 2064,
  "\u2581mantuirii": 2065,
  "\u2581stelele": 2066,
  "\u2581inteles": 2067,
  "\u2581caselor": 2068,
  "\u2581intotdeauna": 2069,
  "\u2581aduse": 2070,
  "\u2581duceau": 2071,
  "\u2581Moab": 2072,
  "\u2581veneau": 2073,
  "\u2581judece": 2074,
  "\u2581vorbesti": 2075,
  "\u2581adevarului": 2076,
  "\u2581credinciosie": 2077,
  "Noi": 2078,
  "\u2581bucure": 2079,
  "\u2581suferi": 2080,
  "\u2581inchine": 2081,
  "\u2581copacii": 2082,
  "\u2581pare": 2083,
  "\u2581calare": 2084,
  "\u2581rautate": 2085,
  "\u2581ras": 2086,
  "\u2581placere": 2087,
  "\u2581Edom": 2088,
  "\u2581Spuneti": 2089,
  "\u2581dadea": 2090,
  "\u2581cantat": 2091,
  "\u2581aducem": 2092,
  "\u2581magar": 2093,
  "\u2581blestem": 2094,
  "\u2581Robul": 2095,
  "\u2581blestemat": 2096,
  "\u2581Viu": 2097,
  "\u2581zecea": 2098,
  "Cat": 2099,
  "\u2581mor": 2100,
  "\u2581Slujitori": 2101,
  "\u2581Sihon": 2102,
  "\u2581Rahela": 2103,
  "\u2581Chiriat": 2104,
  "\u2581Cronicilor": 2105,
  "\u2581Mitpa": 2106,
  "\u2581piara": 2107,
  "\u2581mintea": 2108,
  "\u2581prorocit": 2109,
  "\u2581hotarele": 2110,
  "\u2581viteaz": 2111,
  "\u2581straja": 2112,
  "\u2581sufletele": 2113,
  "\u2581bogatiile": 2114,
  "\u2581pamantesti": 2115,
  "\u2581vitelul": 2116,
  "\u2581strang": 2117,
  "\u2581alaturi": 2118,
  "\u2581sangelui": 2119,
  "\u2581semnele": 2120,
  "Spune": 2121,
  "\u2581tovarasi": 2122,
  "\u2581uraciune": 2123,
  "\u2581iarta": 2124,
  "\u2581chemati": 2125,
  "avea": 2126,
  "\u2581marilor": 2127,
  "\u2581lucrari": 2128,
  "\u2581faradelegea": 2129,
  "\u2581iubiti": 2130,
  "\u2581foame": 2131,
  "Vai": 2132,
  "\u2581tap": 2133,
  "\u2581rastignit": 2134,
  "\u2581plange": 2135,
  "\u2581zdrobit": 2136,
  "\u2581puternica": 2137,
  "\u2581departat": 2138,
  "\u2581aripi": 2139,
  "\u2581Ana": 2140,
  "\u2581fapturi": 2141,
  "\u2581ospat": 2142,
  "\u2581izvor": 2143,
  "\u2581lanturi": 2144,
  "\u2581vale": 2145,
  "\u2581har": 2146,
  "\u2581sete": 2147,
  "\u2581Preasfant": 2148,
  "\u2581parintesti": 2149,
  "\u2581lapte": 2150,
  "\u2581voievozi": 2151,
  "\u2581Iona": 2152,
  "\u2581marturisesc": 2153,
  "\u2581pacatuiasca": 2154,
  "\u2581usile": 2155,
  "\u2581Ierihonului": 2156,
  "\u2581sunetul": 2157,
  "\u2581nimicesc": 2158,
  "\u2581batjocura": 2159,
  "\u2581semintiilor": 2160,
  "\u2581capetele": 2161,
  "\u2581Sine": 2162,
  "\u2581Abia": 2163,
  "\u2581apostoli": 2164,
  "\u2581raurile": 2165,
  "\u2581cursa": 2166,
  "\u2581felurite": 2167,
  "\u2581ridice": 2168,
  "\u2581odata": 2169,
  "\u2581ajuta": 2170,
  "\u2581cad": 2171,
  "\u2581rugaciuni": 2172,
  "\u2581urmari": 2173,
  "\u2581durere": 2174,
  "\u2581marturisire": 2175,
  "\u2581aducea": 2176,
  "\u2581Insa": 2177,
  "\u2581adanc": 2178,
  "\u2581zilei": 2179,
  "\u2581priceput": 2180,
  "\u2581aprinsa": 2181,
  "\u2581intoarceti": 2182,
  "\u2581trecea": 2183,
  "\u2581curvie": 2184,
  "\u2581celei": 2185,
  "\u2581voit": 2186,
  "\u2581pierdut": 2187,
  "\u2581stricat": 2188,
  "elelalte": 2189,
  "\u2581Barnaba": 2190,
  "\u2581Hilchia": 2191,
  "\u2581Iohanan": 2192,
  "\u2581invelitoare": 2193,
  "\u2581trec": 2194,
  "\u2581Satana": 2195,
  "\u2581uraste": 2196,
  "\u2581orb": 2197,
  "\u2581juruinta": 2198,
  "\u2581bataie": 2199,
  "\u2581binecuvanteze": 2200,
  "\u2581averile": 2201,
  "\u2581Amalec": 2202,
  "\u2581cativa": 2203,
  "\u2581cerceteze": 2204,
  "\u2581schimb": 2205,
  "\u2581intample": 2206,
  "\u2581imparatesti": 2207,
  "\u2581ochilor": 2208,
  "\u2581scarba": 2209,
  "\u2581sinagoga": 2210,
  "\u2581dumnezeu": 2211,
  "\u2581vreunul": 2212,
  "\u2581sirienii": 2213,
  "\u2581curva": 2214,
  "\u2581avand": 2215,
  "\u2581patra": 2216,
  "\u2581fundul": 2217,
  "Viu": 2218,
  "\u2581lucra": 2219,
  "\u2581egiptenii": 2220,
  "\u2581Seba": 2221,
  "\u2581privit": 2222,
  "\u2581pestera": 2223,
  "\u2581binecuvantarea": 2224,
  "\u2581desertaciune": 2225,
  "\u2581latimea": 2226,
  "\u2581slobod": 2227,
  "\u2581rascumparare": 2228,
  "rul": 2229,
  "\u2581daramat": 2230,
  "\u2581Mare": 2231,
  "\u2581table": 2232,
  "\u2581laud": 2233,
  "\u2581vino": 2234,
  "\u2581luptat": 2235,
  "\u2581rusinea": 2236,
  "\u2581increderea": 2237,
  "\u2581cred": 2238,
  "na": 2239,
  "Se": 2240,
  "\u2581dregatori": 2241,
  "\u2581vindeca": 2242,
  "\u2581juramant": 2243,
  "\u2581indepartat": 2244,
  "\u2581coarne": 2245,
  "\u2581intind": 2246,
  "\u2581degeaba": 2247,
  "\u2581primeasca": 2248,
  "\u2581zideasca": 2249,
  "\u2581legatura": 2250,
  "\u2581iubesti": 2251,
  "\u2581lacrimi": 2252,
  "\u2581trebuinta": 2253,
  "\u2581covoare": 2254,
  "\u2581planurile": 2255,
  "\u2581inmulti": 2256,
  "\u2581E": 2257,
  "\u2581puterile": 2258,
  "\u2581boul": 2259,
  "\u2581minciuna": 2260,
  "\u2581brate": 2261,
  "\u2581stinge": 2262,
  "\u2581altfel": 2263,
  "\u2581marturia": 2264,
  "\u2581numi": 2265,
  "\u2581increde": 2266,
  "\u2581drugii": 2267,
  "\u2581razvratit": 2268,
  "\u2581inchin": 2269,
  "\u2581mandria": 2270,
  "\u2581daruril": 2271,
  "sca": 2272,
  "\u2581propovaduit": 2273,
  "Adevarat": 2274,
  "\u2581lucrurilor": 2275,
  "\u2581marturiei": 2276,
  "\u2581judecat": 2277,
  "\u2581fericirea": 2278,
  "\u2581intari": 2279,
  "\u2581venind": 2280,
  "\u2581floare": 2281,
  "\u2581bunatate": 2282,
  "\u2581inaltime": 2283,
  "\u2581ingerii": 2284,
  "\u2581roabe": 2285,
  "\u2581incoace": 2286,
  "\u2581surori": 2287,
  "\u2581blestema": 2288,
  "\u2581pasare": 2289,
  "\u2581mustra": 2290,
  "\u2581prilej": 2291,
  "\u2581aduceau": 2292,
  "\u2581liniste": 2293,
  "\u2581tulbura": 2294,
  "\u2581socotit": 2295,
  "omnului": 2296,
  "\u2581supusi": 2297,
  "\u2581cincisprezece": 2298,
  "\u2581Neamuri": 2299,
  "\u2581ogor": 2300,
  "\u2581impliniti": 2301,
  "\u2581verigi": 2302,
  "\u2581sageti": 2303,
  "\u2581Obed": 2304,
  "\u2581Hiram": 2305,
  "\u2581goale": 2306,
  "\u2581piarda": 2307,
  "\u2581nimanui": 2308,
  "\u2581Ghedalia": 2309,
  "\u2581acelora": 2310,
  "\u2581gandesc": 2311,
  "\u2581Tirului": 2312,
  "\u2581slujbele": 2313,
  "\u2581Neamurilor": 2314,
  "\u2581Pastile": 2315,
  "\u2581slujeau": 2316,
  "\u2581Iudeii": 2317,
  "\u2581graba": 2318,
  "\u2581pasii": 2319,
  "\u2581taberei": 2320,
  "\u2581cetatilor": 2321,
  "\u2581Fratii": 2322,
  "\u2581intrebe": 2323,
  "\u2581suflet": 2324,
  "\u2581sufletului": 2325,
  "\u2581nenorociti": 2326,
  "\u2581Avea": 2327,
  "\u2581Unii": 2328,
  "\u2581raman": 2329,
  "\u2581cunoasteti": 2330,
  "\u2581caii": 2331,
  "\u2581t": 2332,
  "\u2581tinerii": 2333,
  "\u2581seamana": 2334,
  "\u2581stramtorare": 2335,
  "im": 2336,
  "\u2581suflare": 2337,
  "\u2581luare": 2338,
  "\u2581strig": 2339,
  "\u2581marturisit": 2340,
  "\u2581beti": 2341,
  "\u2581intelege": 2342,
  "\u2581Betleem": 2343,
  "\u2581Al": 2344,
  "\u2581imparti": 2345,
  "\u2581Ba": 2346,
  "\u2581placea": 2347,
  "\u2581tarie": 2348,
  "\u2581singurul": 2349,
  "\u2581vinovati": 2350,
  "\u2581Gabaon": 2351,
  "\u2581Basan": 2352,
  "\u2581Intoarce": 2353,
  "\u2581Iefta": 2354,
  "\u2581Chehat": 2355,
  "\u2581Ozia": 2356,
  "\u2581cincea": 2357,
  "\u2581Safan": 2358,
  "\u2581ispasirii": 2359,
  "\u2581indrazneala": 2360,
  "\u2581acoperisul": 2361,
  "\u2581randuielile": 2362,
  "\u2581Scriptura": 2363,
  "\u2581intareste": 2364,
  "\u2581tinuturile": 2365,
  "\u2581imparatesc": 2366,
  "\u2581insiva": 2367,
  "\u2581coarnele": 2368,
  "\u2581asteapta": 2369,
  "\u2581femeilor": 2370,
  "\u2581Eli": 2371,
  "\u2581rautatii": 2372,
  "\u2581ies": 2373,
  "\u2581strainul": 2374,
  "\u2581plati": 2375,
  "\u2581fericit": 2376,
  "\u2581pier": 2377,
  "\u2581vedem": 2378,
  "\u2581nebunie": 2379,
  "\u2581scump": 2380,
  "\u2581sanul": 2381,
  "Luati": 2382,
  "\u2581buze": 2383,
  "\u2581Binecuvantat": 2384,
  "\u2581tarile": 2385,
  "\u2581necredinciosi": 2386,
  "\u2581nelegiuit": 2387,
  "\u2581vesnicie": 2388,
  "\u2581urgie": 2389,
  "\u2581locuiti": 2390,
  "\u2581tiitoare": 2391,
  "\u2581ziduri": 2392,
  "\u2581magari": 2393,
  "Binecuvantat": 2394,
  "\u2581Abiatar": 2395,
  "\u2581slujesc": 2396,
  "\u2581Ahasveros": 2397,
  "\u2581biruinta": 2398,
  "\u2581invie": 2399,
  "\u2581durerile": 2400,
  "\u2581smulge": 2401,
  "\u2581Biserica": 2402,
  "\u2581Sodoma": 2403,
  "\u2581soarta": 2404,
  "\u2581caut": 2405,
  "\u2581Capeteniile": 2406,
  "eti": 2407,
  "\u2581scutul": 2408,
  "\u2581fecioara": 2409,
  "\u2581vedenie": 2410,
  "\u2581oranduiril": 2411,
  "\u2581poart": 2412,
  "\u2581Nun": 2413,
  "\u2581cioplite": 2414,
  "\u2581implinirea": 2415,
  "\u2581vorbele": 2416,
  "El": 2417,
  "\u2581cutremur": 2418,
  "\u2581Hanania": 2419,
  "\u2581noptii": 2420,
  "eaza": 2421,
  "\u2581mincinosi": 2422,
  "\u2581departa": 2423,
  "\u2581intalnit": 2424,
  "\u2581stralucirea": 2425,
  "\u2581hotarata": 2426,
  "\u2581sfasiat": 2427,
  "Haidem": 2428,
  "\u2581vesnice": 2429,
  "Lasa": 2430,
  "supra": 2431,
  "\u2581injunghiat": 2432,
  "Sui": 2433,
  "\u2581familie": 2434,
  "\u2581inchide": 2435,
  "\u2581castigat": 2436,
  "tele": 2437,
  "\u2581prieten": 2438,
  "\u2581cautau": 2439,
  "\u2581suflarea": 2440,
  "\u2581sfintii": 2441,
  "\u2581perdea": 2442,
  "\u2581frumos": 2443,
  "\u2581rasplati": 2444,
  "\u2581mananc": 2445,
  "\u2581lunga": 2446,
  "\u2581mangaie": 2447,
  "\u2581anii": 2448,
  "\u2581Har": 2449,
  "\u2581slab": 2450,
  "Intoarce": 2451,
  "\u2581tineri": 2452,
  "\u2581vitejii": 2453,
  "\u2581jertfei": 2454,
  "Fa": 2455,
  "area": 2456,
  "\u2581Ele": 2457,
  "\u2581vremuri": 2458,
  "\u2581scanduri": 2459,
  "\u2581invia": 2460,
  "\u2581biruit": 2461,
  "\u2581multumiri": 2462,
  "\u2581Boaz": 2463,
  "\u2581Nazaret": 2464,
  "Dar": 2465,
  "\u2581lighean": 2466,
  "\u2581amiaza": 2467,
  "\u2581prorocesc": 2468,
  "\u2581radacina": 2469,
  "\u2581incepe": 2470,
  "\u2581furtuna": 2471,
  "\u2581frumoase": 2472,
  "\u2581vuietul": 2473,
  "\u2581cararile": 2474,
  "\u2581orbi": 2475,
  "\u2581ganduri": 2476,
  "\u2581rasculat": 2477,
  "\u2581visul": 2478,
  "\u2581cuvintelor": 2479,
  "\u2581mosi": 2480,
  "\u2581podoaba": 2481,
  "\u2581vedenia": 2482,
  "\u2581vasele": 2483,
  "\u2581tinta": 2484,
  "\u2581jura": 2485,
  "\u2581picioarelor": 2486,
  "\u2581pilde": 2487,
  "b": 2488,
  "\u2581Filistenii": 2489,
  "\u2581altarele": 2490,
  "\u2581intocmit": 2491,
  "Omul": 2492,
  "\u2581mergem": 2493,
  "\u2581focului": 2494,
  "\u2581vase": 2495,
  "\u2581fariseii": 2496,
  "\u2581carturarii": 2497,
  "\u2581infricosat": 2498,
  "\u2581iubea": 2499,
  "\u2581bogatia": 2500,
  "\u2581stropit": 2501,
  "Pen": 2502,
  "\u2581venise": 2503,
  "\u2581Domn": 2504,
  "\u2581birui": 2505,
  "\u2581nesocotit": 2506,
  "\u2581fiara": 2507,
  "\u2581fratel": 2508,
  "\u2581Israele": 2509,
  "\u2581lungime": 2510,
  "\u2581rabdare": 2511,
  "\u2581fiicei": 2512,
  "\u2581frunte": 2513,
  "\u2581trag": 2514,
  "\u2581parti": 2515,
  "\u2581suna": 2516,
  "\u2581oricare": 2517,
  "\u2581copac": 2518,
  "\u2581semana": 2519,
  "\u2581covor": 2520,
  "\u2581purtati": 2521,
  "\u2581instrumente": 2522,
  "\u2581suia": 2523,
  "\u2581F": 2524,
  "\u2581Inainte": 2525,
  "\u2581saturat": 2526,
  "\u2581spala": 2527,
  "\u2581aprinde": 2528,
  "\u2581puteau": 2529,
  "\u2581necurmata": 2530,
  "\u2581cuptor": 2531,
  "\u2581nelegiuiti": 2532,
  "\u2581rascumparat": 2533,
  "\u2581coboar": 2534,
  "\u2581Ati": 2535,
  "\u2581iudeu": 2536,
  "\u2581risipit": 2537,
  "\u2581orz": 2538,
  "\u2581colturi": 2539,
  "\u2581intorcea": 2540,
  "\u2581linistit": 2541,
  "\u2581Amnon": 2542,
  "\u2581Baesa": 2543,
  "\u2581Cades": 2544,
  "\u2581fainii": 2545,
  "\u2581pretutindeni": 2546,
  "\u2581Salum": 2547,
  "\u2581salcam": 2548,
  "\u2581albastru": 2549,
  "\u2581Ezra": 2550,
  "\u2581saselea": 2551,
  "\u2581imparateasa": 2552,
  "\u2581maruntaiele": 2553,
  "\u2581ploaia": 2554,
  "\u2581legaturile": 2555,
  "\u2581urmeze": 2556,
  "Fratilor": 2557,
  "\u2581rauri": 2558,
  "\u2581marime": 2559,
  "\u2581Barbati": 2560,
  "\u2581Multi": 2561,
  "\u2581proslavit": 2562,
  "irea": 2563,
  "\u2581intrebuintat": 2564,
  "\u2581imparatiile": 2565,
  "\u2581scrisori": 2566,
  "\u2581Mantuitorul": 2567,
  "\u2581tineretea": 2568,
  "\u2581imbrac": 2569,
  "\u2581carmuire": 2570,
  "\u2581cantarea": 2571,
  "\u2581locuinte": 2572,
  "indu": 2573,
  "\u2581mantui": 2574,
  "\";": 2575,
  "Hadad": 2576,
  "\u2581Sale": 2577,
  "\u2581uit": 2578,
  "\u2581imparatiei": 2579,
  "\u2581stranga": 2580,
  "\u2581intristare": 2581,
  "\u2581inmultit": 2582,
  "\u2581seminte": 2583,
  "\u2581puternice": 2584,
  "\u2581raului": 2585,
  "\u2581ascunse": 2586,
  "\u2581aluat": 2587,
  "\u2581bir": 2588,
  "\u2581lovituri": 2589,
  "\u2581marturie": 2590,
  "\u2581umble": 2591,
  "\u2581razbuna": 2592,
  "\u2581turte": 2593,
  "\u2581istorisi": 2594,
  "\u2581fagaduit": 2595,
  "\u2581Intr": 2596,
  "\u2581Tara": 2597,
  "\u2581fug": 2598,
  "\u2581toiag": 2599,
  "\u2581dobitoc": 2600,
  "\u2581Cort": 2601,
  "\u2581camile": 2602,
  "\u2581spice": 2603,
  "\u2581cumpara": 2604,
  "\u2581puii": 2605,
  "\u2581verde": 2606,
  "\u2581Baruc": 2607,
  "\u2581Hazael": 2608,
  "\u2581nadajduiesc": 2609,
  "\u2581inselatoare": 2610,
  "\u2581dregatorul": 2611,
  "\u2581suferinta": 2612,
  "\u2581poftele": 2613,
  "\u2581purpura": 2614,
  "\u2581porunceste": 2615,
  "\u2581sfarsi": 2616,
  "\u2581tinda": 2617,
  "\u2581ramurile": 2618,
  "\u2581ulitele": 2619,
  "orul": 2620,
  "\u2581intemeiat": 2621,
  "\u2581indreapta": 2622,
  "\u2581puternici": 2623,
  "\u2581unuia": 2624,
  "\u2581norul": 2625,
  "\u2581tamaia": 2626,
  "\u2581intristat": 2627,
  "\u2581dispretuit": 2628,
  "\u2581arunce": 2629,
  "\u2581unit": 2630,
  "toare": 2631,
  "\u2581alb": 2632,
  "\u2581numea": 2633,
  "\u2581dinapoi": 2634,
  "\u2581frant": 2635,
  "Dumnezeu": 2636,
  "\u2581despartit": 2637,
  "\u2581spunea": 2638,
  "\u2581Egiptul": 2639,
  "\u2581placuta": 2640,
  "\u2581fir": 2641,
  "\u2581prinde": 2642,
  "\u2581hotar": 2643,
  "\u2581oilor": 2644,
  "\u2581chem": 2645,
  "\u2581pantece": 2646,
  "\u2581domn": 2647,
  "\u2581opta": 2648,
  "\u2581Cele": 2649,
  "\u2581padure": 2650,
  "\u2581faradelege": 2651,
  "\u2581smeriti": 2652,
  "\u2581legi": 2653,
  "\u2581luata": 2654,
  "\u2581priceperea": 2655,
  "\u2581durerea": 2656,
  "\u2581Og": 2657,
  "\u2581strainii": 2658,
  "\u2581Rebeca": 2659,
  "\u2581mistui": 2660,
  "\u2581nasterea": 2661,
  "\u2581Asiria": 2662,
  "\u2581domnia": 2663,
  "\u2581En": 2664,
  "\u2581botezat": 2665,
  "\u2581rapit": 2666,
  "\u2581unelte": 2667,
  "\u2581zdrobi": 2668,
  "\u2581privi": 2669,
  "\u2581corabii": 2670,
  "\u2581Iotam": 2671,
  "\u2581nasterii": 2672,
  "\u2581stapaneasca": 2673,
  "\u2581sfaturile": 2674,
  "\u2581departez": 2675,
  "\u2581juramantul": 2676,
  "\u2581Ochii": 2677,
  "\u2581leganat": 2678,
  "\u2581nespus": 2679,
  "\u2581mica": 2680,
  "\u2581siclul": 2681,
  "\u2581Abisai": 2682,
  "\u2581cumpana": 2683,
  "\u2581credintei": 2684,
  "\u2581sagetile": 2685,
  "\u2581cuvine": 2686,
  "\u2581inarmati": 2687,
  "\u2581valurile": 2688,
  "\u2581prieteni": 2689,
  "\u2581departare": 2690,
  "\u2581aseze": 2691,
  "\u2581nimicita": 2692,
  "\u2581stapanit": 2693,
  "\u2581cai": 2694,
  "\u2581fierul": 2695,
  "\u2581Fiului": 2696,
  "\u2581Adonia": 2697,
  "\u2581G": 2698,
  "\u2581B": 2699,
  "\u2581Ahia": 2700,
  "\u2581deplina": 2701,
  "\u2581semanat": 2702,
  "\u2581cuprinde": 2703,
  "ni": 2704,
  "Veniti": 2705,
  "\u2581rasuna": 2706,
  "\u2581Ramot": 2707,
  "Amin": 2708,
  "\u2581judecatii": 2709,
  "\u2581plac": 2710,
  "\u2581urmatoare": 2711,
  "\u2581insotit": 2712,
  "\u2581mergi": 2713,
  "\u2581paisprezece": 2714,
  "\u2581ostire": 2715,
  "anga": 2716,
  "\u2581mir": 2717,
  "\u2581sine": 2718,
  "\u2581Lea": 2719,
  "\u2581supune": 2720,
  "\u2581farisei": 2721,
  "\u2581arat": 2722,
  "\u2581laturi": 2723,
  "os": 2724,
  "\u2581voiti": 2725,
  "\u2581ostasi": 2726,
  "\u2581uraciuni": 2727,
  "\u2581tulburat": 2728,
  "\u2581vers": 2729,
  "\u2581vindecat": 2730,
  "\u2581suflete": 2731,
  "\u2581plecati": 2732,
  "storisit": 2733,
  "\u2581usor": 2734,
  "\u2581logofatul": 2735,
  "\u2581praznuit": 2736,
  "\u2581temelii": 2737,
  "\u2581Zorobabel": 2738,
  "\u2581Ioahaz": 2739,
  "\u2581mirositoare": 2740,
  "\u2581Nebat": 2741,
  "\u2581Darius": 2742,
  "\u2581Mesulam": 2743,
  "\u2581creasca": 2744,
  "\u2581gloata": 2745,
  "\u2581poticnire": 2746,
  "\u2581randuiala": 2747,
  "\u2581sluga": 2748,
  "\u2581canaanitilor": 2749,
  "\u2581gramada": 2750,
  "\u2581incep": 2751,
  "\u2581lucreze": 2752,
  "\u2581scriu": 2753,
  "\u2581Cantati": 2754,
  "\u2581putinta": 2755,
  "\u2581incercare": 2756,
  "\u2581Capeteni": 2757,
  "\u2581opri": 2758,
  "\u2581barbatului": 2759,
  "\u2581gandul": 2760,
  "\u2581stalp": 2761,
  "\u2581ramuri": 2762,
  "\u2581rasaritul": 2763,
  "\u2581intinderea": 2764,
  "\u2581ramai": 2765,
  "\u2581Erau": 2766,
  "\u2581piere": 2767,
  "\u2581ostiri": 2768,
  "\u2581nimiceste": 2769,
  "\u2581nimicite": 2770,
  "\u2581temi": 2771,
  "\u2581sprijin": 2772,
  "\u2581vorbire": 2773,
  "\u2581botezati": 2774,
  "\u2581prietenii": 2775,
  "\u2581locasul": 2776,
  "\u2581roabei": 2777,
  "\u2581mincinos": 2778,
  "Cel": 2779,
  "\u2581negot": 2780,
  "Fiindca": 2781,
  "\u2581sfesnic": 2782,
  "\u2581Numel": 2783,
  "avem": 2784,
  "\u2581norii": 2785,
  "\u2581imprumut": 2786,
  "\u2581iesire": 2787,
  "\u2581Cain": 2788,
  "\u2581jertfit": 2789,
  "\u2581jefuit": 2790,
  "\u2581ura": 2791,
  "Va": 2792,
  "\u2581risipi": 2793,
  "\u2581carul": 2794,
  "\u2581nasca": 2795,
  "\u2581alba": 2796,
  "\u2581cete": 2797,
  "\u2581preaiubit": 2798,
  "\u2581Uita": 2799,
  "\u2581bucur": 2800,
  "\u2581domni": 2801,
  "\u2581egipteni": 2802,
  "\u2581sanatos": 2803,
  "\u2581cailor": 2804,
  "\u2581pustiita": 2805,
  "\u2581ajutat": 2806,
  "\u2581uitati": 2807,
  "\u2581sunat": 2808,
  "\u2581carturari": 2809,
  "\u2581alcatuit": 2810,
  "\u2581dezlegat": 2811,
  "\u2581alcatui": 2812,
  "\u2581razvratiti": 2813,
  "\u2581lana": 2814,
  "\u2581As": 2815,
  "\u2581bou": 2816,
  "\u2581corturi": 2817,
  "\u2581ulite": 2818,
  "\u2581praznui": 2819,
  "\u2581Cirus": 2820,
  "\u2581Gherson": 2821,
  "\u2581Nabal": 2822,
  "\u2581Timotei": 2823,
  "\u2581laolalta": 2824,
  "\u2581rascumpere": 2825,
  "\u2581inteleaga": 2826,
  "\u2581persilor": 2827,
  "\u2581privinta": 2828,
  "\u2581pastile": 2829,
  "\u2581coada": 2830,
  "\u2581poruncesc": 2831,
  "\u2581cunoasca": 2832,
  "\u2581nouazeci": 2833,
  "\u2581fum": 2834,
  "\u2581grele": 2835,
  "\u2581Abel": 2836,
  "\u2581necazurile": 2837,
  "\u2581sterge": 2838,
  "\u2581Fineas": 2839,
  "\u2581necazului": 2840,
  "\u2581somn": 2841,
  "\u2581necazul": 2842,
  "Caci": 2843,
  "\u2581sfatuit": 2844,
  "\u2581Moabul": 2845,
  "\u2581curvit": 2846,
  "\u2581pruncii": 2847,
  "\u2581inceta": 2848,
  "\u2581capi": 2849,
  "\u2581usuca": 2850,
  "V": 2851,
  "\u2581insele": 2852,
  "\u2581traim": 2853,
  "uri": 2854,
  "\u2581munci": 2855,
  "\u2581curate": 2856,
  "za": 2857,
  "\u2581foametea": 2858,
  "\u2581firii": 2859,
  "nima": 2860,
  "\u2581pustiului": 2861,
  "\u2581fiarei": 2862,
  "\u2581Aduceti": 2863,
  "\u2581prinda": 2864,
  "\u2581Ham": 2865,
  "\u2581arunc": 2866,
  "\u2581mahnit": 2867,
  "\u2581mergeti": 2868,
  "\u2581raspunda": 2869,
  "inaintea": 2870,
  "\u2581vedenii": 2871,
  "\u2581gatul": 2872,
  "\u2581stele": 2873,
  "\u2581lungimea": 2874,
  "\u2581lu": 2875,
  "\u2581adevarata": 2876,
  "\u2581pasa": 2877,
  "\u2581credinciosi": 2878,
  "\u2581visat": 2879,
  "\u2581stiau": 2880,
  "\u2581laute": 2881,
  "\u2581inspaimantat": 2882,
  "\u2581temei": 2883,
  "\u2581intinda": 2884,
  "Pan": 2885,
  "ura": 2886,
  "\u2581raspandit": 2887,
  "\u2581semintii": 2888,
  "\u2581silnicie": 2889,
  "\u2581poftit": 2890,
  "ind": 2891,
  "\u2581placute": 2892,
  "\u2581atinga": 2893,
  "\u2581indrepta": 2894,
  "C": 2895,
  "\u2581misca": 2896,
  "\u2581sadi": 2897,
  "\u2581niciuna": 2898,
  "\u2581pacatosi": 2899,
  "\u2581daramaturi": 2900,
  "\u2581Nici": 2901,
  "\u2581azime": 2902,
  "\u2581Maaseia": 2903,
  "\u2581povara": 2904,
  "\u2581Teruiei": 2905,
  "\u2581Rosie": 2906,
  "\u2581boala": 2907,
  "\u2581neincetat": 2908,
  "\u2581strabatut": 2909,
  "\u2581zarva": 2910,
  "\u2581izbaveasca": 2911,
  "\u2581vreodata": 2912,
  "\u2581mincinoase": 2913,
  "\u2581stearpa": 2914,
  "\u2581doresc": 2915,
  "\u2581loveste": 2916,
  "\u2581slujeste": 2917,
  "\u2581noualea": 2918,
  "\u2581mincinoasa": 2919,
  "\u2581goala": 2920,
  "\u2581nisipul": 2921,
  "\u2581campiile": 2922,
  "\u2581destul": 2923,
  "\u2581pacatuieste": 2924,
  "\u2581mormintele": 2925,
  "\u2581pacii": 2926,
  "\u2581locuiesti": 2927,
  "\u2581socrul": 2928,
  "\u2581ostile": 2929,
  "\u2581stalpilor": 2930,
  "\u2581creada": 2931,
  "\u2581patrunde": 2932,
  "\u2581rugaciunile": 2933,
  "\u2581faptelor": 2934,
  "ata": 2935,
  "\u2581aceleia": 2936,
  "\u2581sirienilor": 2937,
  "\u2581aduna": 2938,
  "\u2581painile": 2939,
  "\u2581vecilor": 2940,
  "\u2581Susa": 2941,
  "\u2581zidului": 2942,
  "\u2581fo": 2943,
  "Ah": 2944,
  "ot": 2945,
  "\u2581Babilonul": 2946,
  "\u2581braul": 2947,
  "\u2581murim": 2948,
  "\u2581Intre": 2949,
  "h": 2950,
  "\u2581iertat": 2951,
  "\u2581maracini": 2952,
  "\u2581nenorocirii": 2953,
  "\u2581propovadui": 2954,
  "\u2581dator": 2955,
  "\u2581Mana": 2956,
  "\u2581strige": 2957,
  "\u2581vecii": 2958,
  "\u2581uite": 2959,
  "\u2581dregatorii": 2960,
  "\u2581nascuse": 2961,
  "\u2581marturisi": 2962,
  "\u2581cioplit": 2963,
  "an": 2964,
  "\u2581atarna": 2965,
  "Blestemat": 2966,
  "Acum": 2967,
  "\u2581chipuri": 2968,
  "\u2581iubi": 2969,
  "\u2581acestora": 2970,
  "\u2581straine": 2971,
  "\u2581Chis": 2972,
  "\u2581ucigas": 2973,
  "\u2581dedat": 2974,
  "\u2581latime": 2975,
  "\u2581judecatorii": 2976,
  "\u2581Tata": 2977,
  "\u2581Is": 2978,
  "\u2581castiga": 2979,
  "\u2581pasari": 2980,
  "\u2581carbuni": 2981,
  "\u2581genunchi": 2982,
  "\u2581pastor": 2983,
  "\u2581suferit": 2984,
  "\u2581saisprezece": 2985,
  "\u2581slabi": 2986,
  "\u2581osandit": 2987,
  "\u2581Ierihon": 2988,
  "\u2581curatare": 2989,
  "\u2581legati": 2990,
  "\u2581heviti": 2991,
  "\u2581Zerah": 2992,
  "\u2581Achis": 2993,
  "\u2581Macedonia": 2994,
  "\u2581Obadia": 2995,
  "\u2581Stanca": 2996,
  "\u2581Machir": 2997,
  "\u2581loveasca": 2998,
  "\u2581pomenirea": 2999,
  "\u2581mereu": 3000,
  "\u2581omenesti": 3001,
  "\u2581implinesti": 3002,
  "\u2581vopsite": 3003,
  "\u2581greselile": 3004,
  "\u2581curete": 3005,
  "\u2581scalde": 3006,
  "\u2581negura": 3007,
  "\u2581pretuirea": 3008,
  "\u2581flacara": 3009,
  "\u2581candelele": 3010,
  "\u2581vedeau": 3011,
  "\u2581Ninive": 3012,
  "\u2581Astarteii": 3013,
  "\u2581noroadele": 3014,
  "\u2581randul": 3015,
  "\u2581caramiziu": 3016,
  "\u2581oarecare": 3017,
  "\u2581juruintele": 3018,
  "\u2581prilejul": 3019,
  "\u2581aproapel": 3020,
  "\u2581prietenul": 3021,
  "\u2581inchinare": 3022,
  "\u2581nimicesti": 3023,
  "\u2581Adam": 3024,
  "\u2581harpa": 3025,
  "\u2581strainului": 3026,
  "\u2581uimiti": 3027,
  "\u2581pasune": 3028,
  "\u2581intri": 3029,
  "\u2581rugam": 3030,
  "f": 3031,
  "\u2581Tamar": 3032,
  "\u2581alese": 3033,
  "\u2581stiut": 3034,
  "\u2581cuiva": 3035,
  "\u2581laudele": 3036,
  "\u2581campul": 3037,
  "\u2581celorlalti": 3038,
  "\u2581taia": 3039,
  "\u2581cetatuia": 3040,
  "\u2581indaratnici": 3041,
  "nu": 3042,
  "Semes": 3043,
  "\u2581pieirea": 3044,
  "\u2581dainui": 3045,
  "\u2581rade": 3046,
  "\u2581barba": 3047,
  "\u2581lemnul": 3048,
  "\u2581jure": 3049,
  "\u2581dracii": 3050,
  "\u2581asezate": 3051,
  "\u2581desavarsit": 3052,
  "\u2581dumnezeul": 3053,
  "\u2581bolnavi": 3054,
  "\u2581must": 3055,
  "\u2581hin": 3056,
  "\u2581trezit": 3057,
  "\u2581invierea": 3058,
  "\u2581pom": 3059,
  "\u2581Ori": 3060,
  "\u2581Fiti": 3061,
  "ce": 3062,
  "\u2581vre": 3063,
  "\u2581impietrit": 3064,
  "\u2581smochin": 3065,
  "arte": 3066,
  "\u2581firea": 3067,
  "\u2581socotiti": 3068,
  "una": 3069,
  "\u2581madularel": 3070,
  "\u2581lungi": 3071,
  "asculta": 3072,
  "impotriva": 3073,
  "\u2581tii": 3074,
  "\u2581gat": 3075,
  "\u2581astepta": 3076,
  "\u2581ispitit": 3077,
  "\u2581pacate": 3078,
  "\u2581laudati": 3079,
  "\u2581inselat": 3080,
  "\u2581mantuiti": 3081,
  "\u2581intrebati": 3082,
  "\u2581blestemul": 3083,
  "\u2581totii": 3084,
  "\u2581sfintiti": 3085,
  "\u2581pricepe": 3086,
  "\u2581pacatos": 3087,
  "\u2581apostol": 3088,
  "\u2581apara": 3089,
  "\u2581nimicire": 3090,
  "\u2581batjocorit": 3091,
  "\u2581instiintat": 3092,
  "\u2581multor": 3093,
  "\u2581Duh": 3094,
  "\u2581vorbiti": 3095,
  "\u2581ajung": 3096,
  "\u2581limbi": 3097,
  "\u2581altare": 3098,
  "\u2581scotea": 3099,
  "caci": 3100,
  "\u2581smochine": 3101,
  "\u2581mosteni": 3102,
  "\u2581silit": 3103,
  "\u2581trepte": 3104,
  "\u2581Carmel": 3105,
  "\u2581fiare": 3106,
  "\u2581zalog": 3107,
  "\u2581pacatui": 3108,
  "\u2581fiule": 3109,
  "\u2581dulce": 3110,
  "\u2581Itamar": 3111,
  "\u2581rasucit": 3112,
  "\u2581Elcana": 3113,
  "\u2581implinesc": 3114,
  "\u2581preasfant": 3115,
  "\u2581zarit": 3116,
  "\u2581idolesti": 3117,
  "\u2581optsprezece": 3118,
  "\u2581Rut": 3119,
  "\u2581efodul": 3120,
  "\u2581intrucat": 3121,
  "\u2581ramasesera": 3122,
  "\u2581Naaman": 3123,
  "\u2581viitoare": 3124,
  "\u2581nuiaua": 3125,
  "\u2581Ioel": 3126,
  "\u2581Hamatului": 3127,
  "\u2581turnul": 3128,
  "\u2581lumineze": 3129,
  "\u2581Gaza": 3130,
  "\u2581cincilea": 3131,
  "\u2581fiarelor": 3132,
  "\u2581Basanului": 3133,
  "\u2581Lumina": 3134,
  "\u2581Sabatele": 3135,
  "\u2581magarul": 3136,
  "\u2581stapaneste": 3137,
  "\u2581Libanului": 3138,
  "\u2581juruinte": 3139,
  "\u2581umblu": 3140,
  "\u2581vaza": 3141,
  "\u2581cetatuie": 3142,
  "\u2581Nabot": 3143,
  "\u2581tanarul": 3144,
  "Mai": 3145,
  "\u2581Sabatul": 3146,
  "\u2581Scapa": 3147,
  "\u2581pizma": 3148,
  "\u2581aruncati": 3149,
  "\u2581Haran": 3150,
  "\u2581dadeau": 3151,
  "\u2581iute": 3152,
  "\u2581lemnele": 3153,
  "\u2581odihni": 3154,
  "\u2581drumuri": 3155,
  "\u2581inspaimanta": 3156,
  "\u2581pomi": 3157,
  "\u2581cateva": 3158,
  "\u2581date": 3159,
  "\u2581impotrivi": 3160,
  "\u2581nelegiuite": 3161,
  "\u2581pomul": 3162,
  "\u2581rugati": 3163,
  "\u2581insasi": 3164,
  "\u2581abata": 3165,
  "\u2581Care": 3166,
  "\u2581tamaduit": 3167,
  "\u2581genunchii": 3168,
  "\u2581Sisera": 3169,
  "\u2581deosebit": 3170,
  "\u2581judeci": 3171,
  "\u2581Vreau": 3172,
  "\u2581ieseau": 3173,
  "\u2581lipit": 3174,
  "\u2581bateau": 3175,
  "ana": 3176,
  "\u2581sinagogi": 3177,
  "\u2581indura": 3178,
  "pele": 3179,
  "\u2581izvoarel": 3180,
  "\u2581asculti": 3181,
  "\u2581capacul": 3182,
  "iste": 3183,
  "Asculta": 3184,
  "\u2581trambitei": 3185,
  "Edom": 3186,
  "\u2581vara": 3187,
  "\u2581stalpul": 3188,
  "\u2581sade": 3189,
  "\u2581indemn": 3190,
  "\u2581unsprezece": 3191,
  "\u2581slabe": 3192,
  "\u2581cauti": 3193,
  "\u2581bucurati": 3194,
  "\u2581departata": 3195,
  "\u2581picior": 3196,
  "\u2581izvoare": 3197,
  "\u2581smuls": 3198,
  "\u2581para": 3199,
  "\u2581supuse": 3200,
  "\u2581Hotar": 3201,
  "\u2581binecuvantati": 3202,
  "artea": 3203,
  "\u2581cuget": 3204,
  "\u2581planga": 3205,
  "\u2581calatorie": 3206,
  "\u2581umblati": 3207,
  "\u2581iubitul": 3208,
  "\u2581Lucru": 3209,
  "\u2581nenorociri": 3210,
  "\u2581turn": 3211,
  "Iti": 3212,
  "\u2581miile": 3213,
  "\u2581ascunsa": 3214,
  "\u2581apasa": 3215,
  "\u2581inghitit": 3216,
  "\u2581bat": 3217,
  "\u2581bizui": 3218,
  "\u2581cereri": 3219,
  "\u2581inveseli": 3220,
  "\u2581morman": 3221,
  "\u2581pragul": 3222,
  "\u2581Antiohia": 3223,
  "\u2581Intelepciunea": 3224,
  "\u2581nicidecum": 3225,
  "\u2581Nadab": 3226,
  "\u2581Ahicam": 3227,
  "\u2581inveseleasca": 3228,
  "\u2581Netania": 3229,
  "\u2581Seraia": 3230,
  "\u2581Eliab": 3231,
  "\u2581Eber": 3232,
  "\u2581privesc": 3233,
  "\u2581Anatot": 3234,
  "\u2581stralucitoare": 3235,
  "\u2581pedepseasca": 3236,
  "\u2581Prorocul": 3237,
  "\u2581cezarului": 3238,
  "\u2581cerceta": 3239,
  "\u2581desarte": 3240,
  "\u2581panza": 3241,
  "\u2581pustietate": 3242,
  "\u2581sarutat": 3243,
  "\u2581zidesc": 3244,
  "\u2581treaba": 3245,
  "\u2581pedepseste": 3246,
  "\u2581certuri": 3247,
  "\u2581nelegiuirilor": 3248,
  "\u2581curviile": 3249,
  "\u2581purpuriu": 3250,
  "\u2581leapada": 3251,
  "\u2581potirul": 3252,
  "\u2581cartile": 3253,
  "\u2581Dimpotriva": 3254,
  "\u2581izbanda": 3255,
  "\u2581temelia": 3256,
  "\u2581deosebire": 3257,
  "\u2581folosul": 3258,
  "\u2581bucate": 3259,
  "\u2581ratacire": 3260,
  "\u2581curse": 3261,
  "\u2581incheiat": 3262,
  "\u2581slujim": 3263,
  "\u2581roti": 3264,
  "\u2581saci": 3265,
  "\u2581Uza": 3266,
  "\u2581sufera": 3267,
  "Dumnezeul": 3268,
  "\u2581descopera": 3269,
  "\u2581capra": 3270,
  "\u2581las": 3271,
  "\u2581domnitorii": 3272,
  "\u2581Maaca": 3273,
  "\u2581acoperiti": 3274,
  "\u2581surpa": 3275,
  "\u2581canaanitii": 3276,
  "\u2581oaie": 3277,
  "\u2581purtau": 3278,
  "\u2581cuptorul": 3279,
  "\u2581mustrarea": 3280,
  "\u2581datoria": 3281,
  "\u2581mistuie": 3282,
  "\u2581dezbracat": 3283,
  "\u2581prapad": 3284,
  "\u2581dealurile": 3285,
  "\u2581altele": 3286,
  "\"?\"": 3287,
  "\u2581mosie": 3288,
  "\u2581planuri": 3289,
  "\u2581Fi": 3290,
  "\u2581ferestre": 3291,
  "\u2581laudam": 3292,
  "\u2581pastra": 3293,
  "\u2581razboiul": 3294,
  "evasta": 3295,
  "\u2581piept": 3296,
  "\u2581odaie": 3297,
  "\u2581Vezi": 3298,
  "\u2581topi": 3299,
  "\u2581botezul": 3300,
  "\u2581minunate": 3301,
  "\u2581deschid": 3302,
  "sti": 3303,
  "\u2581dori": 3304,
  "\u2581unsul": 3305,
  "\u2581fruntasi": 3306,
  "\u2581pieptul": 3307,
  "\u2581mancau": 3308,
  "Din": 3309,
  "Bine": 3310,
  "Pune": 3311,
  "Tatal": 3312,
  "\u2581stramtorarea": 3313,
  "Tata": 3314,
  "\u2581inteleptii": 3315,
  "aiba": 3316,
  "\u2581sfetnici": 3317,
  "\u2581Veniti": 3318,
  "rilor": 3319,
  "\u2581Sem": 3320,
  "\u2581omorati": 3321,
  "\u2581intindea": 3322,
  "\u2581mantuire": 3323,
  "P": 3324,
  "\u2581ratacit": 3325,
  "\u2581viitor": 3326,
  "\u2581rand": 3327,
  "\u2581binecuvantare": 3328,
  "\u2581indoit": 3329,
  "Dati": 3330,
  "\u2581sac": 3331,
  "\u2581dregator": 3332,
  "\u2581acele": 3333,
  "\u2581nelegiuiri": 3334,
  "\u2581puse": 3335,
  "\u2581stanci": 3336,
  "tand": 3337,
  "\u2581certat": 3338,
  "\u2581spanzurat": 3339,
  "\u2581Evanghelie": 3340,
  "\u2581Mie": 3341,
  "\u2581judecatori": 3342,
  "\u2581uiti": 3343,
  "\u2581stramb": 3344,
  "\u2581Ah": 3345,
  "\u2581omor": 3346,
  "\u2581ramasite": 3347,
  "\u2581dorit": 3348,
  "\u2581ogoare": 3349,
  "\u2581noroade": 3350,
  "\u2581chivot": 3351,
  "\u2581plang": 3352,
  "\u2581lei": 3353,
  "\u2581cort": 3354,
  "\u2581Vino": 3355,
  "\u2581strica": 3356,
  "\u2581taiere": 3357,
  "\u2581templul": 3358,
  "\u2581diavolul": 3359,
  "\u2581treisprezece": 3360,
  "\u2581Ghehazi": 3361,
  "\u2581flamand": 3362,
  "\u2581zapada": 3363,
  "Iearim": 3364,
  "\u2581Enoh": 3365,
  "\u2581Sucot": 3366,
  "\u2581pocainta": 3367,
  "\u2581urmeaza": 3368,
  "\u2581indeplinire": 3369,
  "\u2581intelepciunii": 3370,
  "\u2581opreste": 3371,
  "\u2581raspunzi": 3372,
  "\u2581Nahor": 3373,
  "\u2581mut": 3374,
  "\u2581Niciun": 3375,
  "\u2581sosit": 3376,
  "\u2581coasta": 3377,
  "\u2581mostenirii": 3378,
  "\u2581grumazul": 3379,
  "\u2581implineste": 3380,
  "\u2581pregateste": 3381,
  "\u2581fagaduintele": 3382,
  "\u2581trestie": 3383,
  "\u2581imparatesei": 3384,
  "\u2581corzi": 3385,
  "\u2581cugetul": 3386,
  "\u2581coapsele": 3387,
  "\u2581scoale": 3388,
  "\u2581marama": 3389,
  "\u2581bucatele": 3390,
  "\u2581rosu": 3391,
  "\u2581locuintele": 3392,
  "\u2581tacea": 3393,
  "\u2581colturile": 3394,
  "\u2581temnitei": 3395,
  "\u2581Naomi": 3396,
  "\u2581urmele": 3397,
  "\u2581chipurile": 3398,
  "\u2581bratele": 3399,
  "\u2581insine": 3400,
  "\u2581mainii": 3401,
  "\u2581apasat": 3402,
  "\u2581berbecul": 3403,
  "\u2581treime": 3404,
  "\u2581copaci": 3405,
  "\u2581munca": 3406,
  "\u2581privito": 3407,
  "\u2581odaile": 3408,
  "\u2581ajute": 3409,
  "incoace": 3410,
  "\u2581vesela": 3411,
  "\u2581pamanteasca": 3412,
  "\u2581Sionul": 3413,
  "\u2581cunoastem": 3414,
  "\u2581vrednici": 3415,
  "ua": 3416,
  "\u2581brau": 3417,
  "\u2581ferice": 3418,
  "\u2581numarat": 3419,
  "\u2581albe": 3420,
  "\u2581staruit": 3421,
  "\u2581Cuvinte": 3422,
  "\u2581incaltamintea": 3423,
  "\u2581imparateste": 3424,
  "\u2581nebunia": 3425,
  "\u2581sfat": 3426,
  "\u2581grabit": 3427,
  "\u2581cararea": 3428,
  "\u2581potolit": 3429,
  "\u2581pestii": 3430,
  "\u2581crutat": 3431,
  "\u2581intuneca": 3432,
  "\u2581deschise": 3433,
  "\u2581familii": 3434,
  "\u2581pastori": 3435,
  "\u2581fecioare": 3436,
  "\u2581necurata": 3437,
  "\u2581alerga": 3438,
  "\u2581intinse": 3439,
  "\u2581sufla": 3440,
  "vada": 3441,
  "tatea": 3442,
  "\u2581finici": 3443,
  "\u2581Stiu": 3444,
  "\u2581acoperis": 3445,
  "\u2581steagul": 3446,
  "\u2581incercat": 3447,
  "\u2581anilor": 3448,
  "\u2581osandi": 3449,
  "\u2581noroi": 3450,
  "\u2581carmui": 3451,
  "\u2581slavit": 3452,
  "\u2581Imparat": 3453,
  "on": 3454,
  "\u2581hetitul": 3455,
  "\u2581dres": 3456,
  "\u2581arse": 3457,
  "Stiu": 3458,
  "\u2581rascumpararea": 3459,
  "\u2581milostiv": 3460,
  "\u2581jug": 3461,
  "\u2581nedrept": 3462,
  "\u2581Amasa": 3463,
  "\u2581placerea": 3464,
  "\u2581brat": 3465,
  "\u2581petrece": 3466,
  "itul": 3467,
  "\u2581adunati": 3468,
  "\u2581treci": 3469,
  "\u2581porni": 3470,
  "\u2581fire": 3471,
  "\u2581turme": 3472,
  "\u2581heruvim": 3473,
  "\u2581rost": 3474,
  "Ai": 3475,
  "\u2581rinichi": 3476,
  "\u2581nopti": 3477,
  "\u2581minunat": 3478,
  "\u2581obicei": 3479,
  "\u2581incet": 3480,
  "\u2581ridicare": 3481,
  "\u2581hot": 3482,
  "\u2581loviti": 3483,
  "\u2581vaduve": 3484,
  "\u2581drege": 3485,
  "\u2581marturisest": 3486,
  "\u2581ridic": 3487,
  "\u2581sunet": 3488,
  "\u2581batuti": 3489,
  "\u2581pedepsiti": 3490,
  "\u2581cantareti": 3491,
  "\u2581Arnon": 3492,
  "\u2581strop": 3493,
  "\u2581Pasti": 3494,
  "\u2581adauga": 3495,
  "\u2581hainei": 3496,
  "\u2581ziditi": 3497,
  "\u2581Lachis": 3498,
  "\u2581Ahimaat": 3499,
  "\u2581Eliasib": 3500,
  "\u2581Rabsache": 3501,
  "\u2581zboara": 3502,
  "\u2581caldura": 3503,
  "\u2581fereastra": 3504,
  "\u2581Fariseii": 3505,
  "\u2581vechime": 3506,
  "\u2581savarsesc": 3507,
  "\u2581tineretii": 3508,
  "\u2581Omri": 3509,
  "\u2581intareasca": 3510,
  "\u2581farfurie": 3511,
  "?...": 3512,
  "\u2581treburile": 3513,
  "\u2581Tirta": 3514,
  "\u2581lipseste": 3515,
  "\u2581obiceiurile": 3516,
  "\u2581dosul": 3517,
  "\u2581biserica": 3518,
  "\u2581spatele": 3519,
  "ocuitorii": 3520,
  "\u2581fierbinte": 3521,
  "\u2581turmelor": 3522,
  "\u2581tacut": 3523,
  "\u2581albastra": 3524,
  "\u2581inainta": 3525,
  "\u2581pasarilor": 3526,
  "\u2581neputinta": 3527,
  "\u2581suferintele": 3528,
  "\u2581taratoare": 3529,
  "\u2581Damascului": 3530,
  "\u2581petrecut": 3531,
  "\u2581truda": 3532,
  "D": 3533,
  "car": 3534,
  "\u2581primiti": 3535,
  "\u2581saracului": 3536,
  "aintea": 3537,
  "\u2581sufere": 3538,
  "\u2581Ahitofel": 3539,
  "\u2581tineti": 3540,
  "\u2581desparti": 3541,
  "\u2581funii": 3542,
  "\u2581rodii": 3543,
  "\u2581Harul": 3544,
  "\u2581cortului": 3545,
  "\u2581asteptam": 3546,
  "\u2581pasc": 3547,
  "\u2581copilului": 3548,
  "M": 3549,
  "\u2581gandeste": 3550,
  "\u2581plangeti": 3551,
  "\u2581pretuit": 3552,
  "\u2581mustrat": 3553,
  "\u2581negustori": 3554,
  "\u2581departeaza": 3555,
  "\u2581tamadui": 3556,
  "\u2581zidirea": 3557,
  "\u2581primejdie": 3558,
  "\u2581Hur": 3559,
  "\u2581ruda": 3560,
  "\u2581cererea": 3561,
  "\u2581su": 3562,
  "\u2581suim": 3563,
  "\u2581usii": 3564,
  "\u2581Asael": 3565,
  "\u2581Hor": 3566,
  "\u2581suiti": 3567,
  "\u2581scapati": 3568,
  "\u2581ungi": 3569,
  "\u2581maretie": 3570,
  "\u2581rasare": 3571,
  "\u2581cutare": 3572,
  "\u2581turt": 3573,
  "\u2581Evangheliei": 3574,
  "\u2581pastorii": 3575,
  "\u2581mancam": 3576,
  "\u2581deplin": 3577,
  "\u2581imbata": 3578,
  "\u2581Stapanul": 3579,
  "\u2581Asdod": 3580,
  "\u2581Faceti": 3581,
  "\u2581pustiite": 3582,
  "\u2581izbavirea": 3583,
  "\u2581bag": 3584,
  "\u2581scut": 3585,
  "\u2581multumit": 3586,
  "\u2581dam": 3587,
  "\u2581locas": 3588,
  "\u2581voiesc": 3589,
  "\u2581Proroci": 3590,
  "\u2581desavarsita": 3591,
  "\u2581asuprit": 3592,
  "\u2581paisprezecea": 3593,
  "\u2581poleit": 3594,
  "\u2581plecare": 3595,
  "\u2581infatisa": 3596,
  "\u2581idol": 3597,
  "\u2581urgii": 3598,
  "\u2581raspund": 3599,
  "\u2581rabdarea": 3600,
  "\u2581vrajitorii": 3601,
  "\u2581Iabes": 3602,
  "\u2581temeau": 3603,
  "\u2581Pa": 3604,
  "\u2581nadajdui": 3605,
  "\u2581lipsiti": 3606,
  "\u2581intamplate": 3607,
  "\u2581port": 3608,
  "\u2581tunete": 3609,
  "\u2581declar": 3610,
  "\u2581Ha": 3611,
  "asculte": 3612,
  "\u2581adanca": 3613,
  "\u2581flacari": 3614,
  "\u2581impresurat": 3615,
  "seamana": 3616,
  "\u2581fiecarui": 3617,
  "\u2581Tir": 3618,
  "\u2581scrisoare": 3619,
  "\u2581straluc": 3620,
  "\u2581mirat": 3621,
  "\u2581tinere": 3622,
  "\u2581gasea": 3623,
  "\u2581hotarare": 3624,
  "\u2581cercetat": 3625,
  "\u2581cata": 3626,
  "\u2581sila": 3627,
  "\u2581invataturi": 3628,
  "\u2581haldei": 3629,
  "\u2581struguri": 3630,
  "\u2581strapuns": 3631,
  "\u2581doborat": 3632,
  "\u2581odihnit": 3633,
  "\u2581amoriti": 3634,
  "\u2581Ner": 3635,
  "\u2581turna": 3636,
  "\u2581anului": 3637,
  "\u2581obosit": 3638,
  "\u2581Timna": 3639,
  "\u2581urmas": 3640,
  "\u2581post": 3641,
  "\u2581slobozi": 3642,
  "aveti": 3643,
  "\u2581draci": 3644,
  "\u2581platit": 3645,
  "\u2581Sidon": 3646,
  "\u2581porumbel": 3647,
  "\u2581egiptean": 3648,
  "\u2581viclesug": 3649,
  "\u2581mirodenii": 3650,
  "\u2581Mielul": 3651,
  "\u2581Azimelor": 3652,
  "\u2581Galileii": 3653,
  "\u2581Manoah": 3654,
  "\u2581Sanherib": 3655,
  "\u2581Sodomei": 3656,
  "\u2581Ahimelec": 3657,
  "\u2581Atalia": 3658,
  "\u2581prajina": 3659,
  "\u2581Efes": 3660,
  "\u2581Horeb": 3661,
  "\u2581cerceteaza": 3662,
  "\u2581Heman": 3663,
  "\u2581rascoala": 3664,
  "\u2581zamislit": 3665,
  "\u2581mantaua": 3666,
  "\u2581Elisama": 3667,
  "\u2581talcuirea": 3668,
  "\u2581Tobia": 3669,
  "\u2581precum": 3670,
  "\u2581sageata": 3671,
  "\u2581unghiului": 3672,
  "\u2581ranile": 3673,
  "\u2581Pamantul": 3674,
  "\u2581nesocoteste": 3675,
  "\u2581sfasie": 3676,
  "\u2581Mielului": 3677,
  "\u2581capitala": 3678,
  "\u2581masuri": 3679,
  "\u2581pastreaza": 3680,
  "\u2581curtile": 3681,
  "\u2581schimba": 3682,
  "\u2581planul": 3683,
  "\u2581Timp": 3684,
  "\u2581sarbatorile": 3685,
  "\u2581efodului": 3686,
  "\u2581femeiasca": 3687,
  "\u2581Teman": 3688,
  "\u2581Hetron": 3689,
  "\u2581sfesnicul": 3690,
  "\u2581dregatorilor": 3691,
  "\u2581ogoarele": 3692,
  "\u2581nenorocirile": 3693,
  "\u2581limbile": 3694,
  "\u2581sarpele": 3695,
  "\u2581umbland": 3696,
  "\u2581fiicelor": 3697,
  "\u2581ostroavele": 3698,
  "\u2581ceresti": 3699,
  "\u2581scandurile": 3700,
  "\u2581cutremura": 3701,
  "\u2581Peret": 3702,
  "\u2581Pazeste": 3703,
  "\u2581inteleptilor": 3704,
  "\u2581descopere": 3705,
  "\u2581slujea": 3706,
  "\u2581veacului": 3707,
  "\u2581sfintirea": 3708,
  "\u2581bati": 3709,
  "\u2581intruna": 3710,
  "\u2581lutul": 3711,
  "\u2581avusese": 3712,
  "\u2581erati": 3713,
  "\u2581jertfelor": 3714,
  "\u2581ucida": 3715,
  "\u2581Fata": 3716,
  "\u2581Asia": 3717,
  "Est": 3718,
  "\u2581marel": 3719,
  "\u2581Rimon": 3720,
  "\u2581multimii": 3721,
  "\u2581scuturi": 3722,
  "\u2581lauta": 3723,
  "\u2581partasi": 3724,
  "\u2581vanturi": 3725,
  "\u2581podoabe": 3726,
  "\u2581ridicati": 3727,
  "punerea": 3728,
  "\u2581Dati": 3729,
  "\u2581laudat": 3730,
  "\u2581pata": 3731,
  "\u2581Do": 3732,
  "\u2581minune": 3733,
  "\u2581viile": 3734,
  "\u2581inspaimantati": 3735,
  "\u2581adaug": 3736,
  "\u2581puneau": 3737,
  "\u2581do": 3738,
  "\u2581lipi": 3739,
  "\u2581minunata": 3740,
  "\u2581risipiti": 3741,
  "Toat": 3742,
  "\u2581insi": 3743,
  "\u2581magarii": 3744,
  "\u2581paie": 3745,
  "eau": 3746,
  "\u2581trebuit": 3747,
  "\u2581satul": 3748,
  "\u2581Prorocii": 3749,
  "coace": 3750,
  "\u2581cununi": 3751,
  "\u2581razbun": 3752,
  "\u2581pazitori": 3753,
  "Imparatul": 3754,
  "\u2581pahar": 3755,
  "\u2581Ar": 3756,
  "La": 3757,
  "\u2581cresc": 3758,
  "\u2581asemana": 3759,
  "\u2581tovaras": 3760,
  "Aceasta": 3761,
  "Poporul": 3762,
  "Vezi": 3763,
  "\u2581numarand": 3764,
  "\u2581tinea": 3765,
  "\u2581tabarasc": 3766,
  "\u2581leac": 3767,
  "\u2581luand": 3768,
  "\u2581imparta": 3769,
  "\u2581oricar": 3770,
  "\u2581fericire": 3771,
  "\u2581maslin": 3772,
  "\u2581inviere": 3773,
  "\u2581potoli": 3774,
  "arele": 3775,
  "\u2581Preot": 3776,
  "\u2581izbavire": 3777,
  "\u2581curatati": 3778,
  "\u2581inapoia": 3779,
  "\u2581nepedepsit": 3780,
  "nga": 3781,
  "\u2581usca": 3782,
  "\u2581Nebu": 3783,
  "\u2581lega": 3784,
  "\u2581lacuste": 3785,
  "\u2581necazuri": 3786,
  "\u2581dealuri": 3787,
  "\u2581Hesbon": 3788,
  "\u2581sarpe": 3789,
  "\u2581intinsa": 3790,
  "\u2581ispasirea": 3791,
  "\u2581scaparea": 3792,
  "\u2581albi": 3793,
  "\u2581vestiti": 3794,
  "\u2581flamanzi": 3795,
  "\u2581Tarsis": 3796,
  "\u2581Botezatorul": 3797,
  "\u2581Capernaum": 3798,
  "\u2581Iedutun": 3799,
  "\u2581Iefune": 3800,
  "\u2581Izabela": 3801,
  "\u2581gherghef": 3802,
  "\u2581Aminadab": 3803,
  "\u2581Satanei": 3804,
  "\u2581comoara": 3805,
  "\u2581baiatul": 3806,
  "\u2581Iair": 3807,
  "\u2581Matania": 3808,
  "\u2581odihneste": 3809,
  "\u2581intoarcere": 3810,
  "\u2581lovesti": 3811,
  "\u2581vulturul": 3812,
  "\u2581urmareasca": 3813,
  "\u2581faima": 3814,
  "\u2581intreaga": 3815,
  "\u2581slujesti": 3816,
  "\u2581Amaria": 3817,
  "\u2581Altii": 3818,
  "\u2581vietuitoare": 3819,
  "\u2581Uziel": 3820,
  "oalele": 3821,
  "\u2581harpe": 3822,
  "\u2581verdeata": 3823,
  "\u2581deal": 3824,
  "\u2581palatele": 3825,
  "\u2581orfanului": 3826,
  "\u2581Etiopia": 3827,
  "\u2581treptelor": 3828,
  "\u2581Cheila": 3829,
  "\u2581aspra": 3830,
  "\u2581praznicului": 3831,
  "\u2581fariseilor": 3832,
  "\u2581smochinul": 3833,
  "\u2581porneau": 3834,
  "\u2581Tiba": 3835,
  "\u2581mantuieste": 3836,
  "\u2581fumul": 3837,
  "\u2581funiile": 3838,
  "\u2581infatiseze": 3839,
  "\u2581mustul": 3840,
  "\u2581duhurile": 3841,
  "\u2581temelie": 3842,
  "vesteste": 3843,
  "\u2581ulita": 3844,
  "\u2581daramaturile": 3845,
  "\u2581corabiile": 3846,
  "\u2581urmareste": 3847,
  "\u2581plec": 3848,
  "\u2581odailor": 3849,
  "\u2581sarcina": 3850,
  "\u2581Siria": 3851,
  "\u2581Imparatiei": 3852,
  "\u2581Capul": 3853,
  "\u2581spata": 3854,
  "\u2581fura": 3855,
  "\u2581saracilor": 3856,
  "\u2581ingerului": 3857,
  "\u2581intelegeti": 3858,
  "\u2581mirosul": 3859,
  "\u2581vitelului": 3860,
  "\u2581haide": 3861,
  "al": 3862,
  "\u2581viei": 3863,
  "\u2581amagit": 3864,
  "\u2581maretia": 3865,
  "\u2581Malchia": 3866,
  "\u2581Slava": 3867,
  "\u2581prisos": 3868,
  "\u2581luasera": 3869,
  "\u2581pofta": 3870,
  "\u2581vreunui": 3871,
  "\u2581prost": 3872,
  "\u2581zideste": 3873,
  "\u2581fierbe": 3874,
  "\u2581vaci": 3875,
  "\u2581cante": 3876,
  "\u2581ascutita": 3877,
  "\u2581cuvenita": 3878,
  "\u2581spurca": 3879,
  "\u2581desparta": 3880,
  "\u2581Ierusalime": 3881,
  "\u2581suparat": 3882,
  "\u2581trupuri": 3883,
  "Ve": 3884,
  "\u2581starnit": 3885,
  "dup": 3886,
  "\u2581sol": 3887,
  "\u2581frumusetea": 3888,
  "\u2581averea": 3889,
  "\u2581incarcat": 3890,
  "\u2581larg": 3891,
  "\u2581sprijinit": 3892,
  "egresit": 3893,
  "\u2581Om": 3894,
  "\u2581zilelor": 3895,
  "\u2581lucrati": 3896,
  "\u2581ungerea": 3897,
  "\u2581nelegiuirii": 3898,
  "\u2581vindecare": 3899,
  "\u2581prapadul": 3900,
  "\u2581scurgerea": 3901,
  "\u2581sp": 3902,
  "\u2581talhari": 3903,
  "\u2581Mical": 3904,
  "\u2581Sila": 3905,
  "\u2581randuite": 3906,
  "\u2581pacatosii": 3907,
  "\u2581pesti": 3908,
  "\u2581pricinuit": 3909,
  "\u2581curatia": 3910,
  "\u2581adancimi": 3911,
  "\u2581intristati": 3912,
  "\u2581scrisoarea": 3913,
  "\u2581idolul": 3914,
  "\u2581linistiti": 3915,
  "\u2581dovedi": 3916,
  "\u2581asez": 3917,
  "oiul": 3918,
  "\u2581socoti": 3919,
  "\u2581preaiubiti": 3920,
  "\u2581carelor": 3921,
  "\u2581credeau": 3922,
  "\u2581Sarai": 3923,
  "\u2581oase": 3924,
  "\u2581furat": 3925,
  "\u2581stricati": 3926,
  "\u2581somnul": 3927,
  "\u2581zdrobiti": 3928,
  "\u2581calaretii": 3929,
  "\u2581strigau": 3930,
  "\u2581cumparati": 3931,
  "\u2581spr": 3932,
  "\u2581sprijina": 3933,
  "\u2581Tin": 3934,
  "Samanta": 3935,
  "\u2581cal": 3936,
  "\u2581fericita": 3937,
  "acolo": 3938,
  "\u2581ameninta": 3939,
  "\u2581Parinti": 3940,
  "\u2581Mam": 3941,
  "\u2581aducand": 3942,
  "\u2581vecini": 3943,
  "\u2581zabovi": 3944,
  "\u2581Hadad": 3945,
  "Au": 3946,
  "\u2581bauturi": 3947,
  "T": 3948,
  "\u2581teasc": 3949,
  "asa": 3950,
  "\u2581acoperita": 3951,
  "\u2581luptati": 3952,
  "Care": 3953,
  "\u2581Er": 3954,
  "\u2581imprastiat": 3955,
  "\u2581batranete": 3956,
  "\u2581cos": 3957,
  "\u2581erai": 3958,
  "\u2581cruce": 3959,
  "\u2581gros": 3960,
  "\u2581urmator": 3961,
  "\u2581coapse": 3962,
  "\u2581ucenic": 3963,
  "\u2581Iehiel": 3964,
  "\u2581inalti": 3965,
  "\u2581Tie": 3966,
  "\u2581capre": 3967,
  "\u2581hotarari": 3968,
  "Ati": 3969,
  "\u2581imparte": 3970,
  "\u2581Bucura": 3971,
  "\u2581usieri": 3972,
  "\u2581Fiu": 3973,
  "\u2581canaaniti": 3974,
  "\u2581talant": 3975,
  "\u2581cui": 3976,
  "\u2581intariti": 3977,
  "ici": 3978,
  "\u2581mandrie": 3979,
  "nul": 3980,
  "\u2581mangaiat": 3981,
  "\u2581levitul": 3982,
  "\u2581intalni": 3983,
  "Sunte": 3984,
  "\u2581efod": 3985,
  "\u2581Barac": 3986,
  "\u2581vuiet": 3987,
  "\u2581Eufrat": 3988,
  "\u2581Abigail": 3989,
  "Nego": 3990,
  "\u2581Ahitub": 3991,
  "\u2581Festus": 3992,
  "\u2581Gosen": 3993,
  "\u2581Ioiachin": 3994,
  "\u2581grindina": 3995,
  "\u2581neasteptate": 3996,
  "\u2581Eliachim": 3997,
  "\u2581Elifaz": 3998,
  "\u2581vlaga": 3999,
  "\u2581Eliezer": 4000,
  "\u2581Hasabia": 4001,
  "\u2581Dimineata": 4002,
  "\u2581lumineaza": 4003,
  "\u2581stearga": 4004,
  "\u2581Ieter": 4005,
  "\u2581unsprezecelea": 4006,
  "\u2581Mesac": 4007,
  "\u2581Cezareea": 4008,
  "\u2581aspru": 4009,
  "\u2581Iahat": 4010,
  "\u2581tarziu": 4011,
  "\u2581binevoitor": 4012,
  "\u2581gelos": 4013,
  "\u2581imbarbateaza": 4014,
  "\u2581zorilor": 4015,
  "\u2581mantuiasca": 4016,
  "\u2581topeste": 4017,
  "\u2581evreilor": 4018,
  "\u2581trezeste": 4019,
  "\u2581plangand": 4020,
  "\u2581oriunde": 4021,
  "\u2581inveseleste": 4022,
  "\u2581umeri": 4023,
  "\u2581Bisericii": 4024,
  "\u2581noroadelor": 4025,
  "\u2581vistieria": 4026,
  "\u2581Bani": 4027,
  "\u2581traiesti": 4028,
  "\u2581palma": 4029,
  "\u2581Ionadab": 4030,
  "\u2581Izbaveste": 4031,
  "\u2581obiceiul": 4032,
  "\u2581colt": 4033,
  "\u2581copilasi": 4034,
  "\u2581rotile": 4035,
  "\u2581Tars": 4036,
  "\u2581lacusta": 4037,
  "\u2581cunosteau": 4038,
  "\u2581osanda": 4039,
  "\u2581piete": 4040,
  "\u2581adancul": 4041,
  "\u2581ostiril": 4042,
  "\u2581inconjurau": 4043,
  "\u2581venisera": 4044,
  "\u2581epistola": 4045,
  "\u2581strapunge": 4046,
  "\u2581izvorul": 4047,
  "\u2581ierte": 4048,
  "\u2581vrem": 4049,
  "\u2581nebunul": 4050,
  "\u2581putine": 4051,
  "\u2581inainteaza": 4052,
  "\u2581Lazar": 4053,
  "\u2581vorbise": 4054,
  "\u2581tatele": 4055,
  "\u2581nunta": 4056,
  "\u2581ostenit": 4057,
  "\u2581induraril": 4058,
  "\u2581fuge": 4059,
  "\u2581Galaadul": 4060,
  "\u2581pamanturile": 4061,
  "\u2581praznic": 4062,
  "\u2581arsa": 4063,
  "\u2581uneltit": 4064,
  "\u2581inchida": 4065,
  "\u2581laturile": 4066,
  "\u2581lantisoare": 4067,
  "\u2581moarta": 4068,
  "\u2581nedreptate": 4069,
  "ufletul": 4070,
  "\u2581ranit": 4071,
  "\u2581randuri": 4072,
  "\u2581Calea": 4073,
  "\u2581ucigasul": 4074,
  "\u2581amestecat": 4075,
  "\u2581pecetea": 4076,
  "\u2581vorbim": 4077,
  "\u2581morminte": 4078,
  "\u2581leaga": 4079,
  "\u2581chinuit": 4080,
  "\u2581Gur": 4081,
  "\u2581drugi": 4082,
  "\u2581vaduvei": 4083,
  "\u2581iertarea": 4084,
  "\u2581Ur": 4085,
  "\u2581steag": 4086,
  "\u2581ingrozit": 4087,
  "\u2581invat": 4088,
  "\u2581sleit": 4089,
  "\u2581cercetati": 4090,
  "\u2581scoateti": 4091,
  "\u2581trimita": 4092,
  "\u2581crucea": 4093,
  "\u2581Arata": 4094,
  "\u2581sasea": 4095,
  "\u2581intrati": 4096,
  "\u2581vestita": 4097,
  "\u2581intarita": 4098,
  "rurile": 4099,
  "\u2581bei": 4100,
  "Scoateti": 4101,
  "\u2581fericiti": 4102,
  "?\",": 4103,
  "Cautati": 4104,
  "\u2581Elam": 4105,
  "\u2581deschida": 4106,
  "dar": 4107,
  "\u2581Fie": 4108,
  "iatra": 4109,
  "\u2581fulgerul": 4110,
  "\u2581luptei": 4111,
  "\u2581dorest": 4112,
  "itilor": 4113,
  "\u2581zidest": 4114,
  "\u2581parau": 4115,
  "\u2581banii": 4116,
  "\u2581ridici": 4117,
  "\u2581Het": 4118,
  "\u2581sabii": 4119,
  "\u2581prefac": 4120,
  "\u2581amara": 4121,
  "ocmai": 4122,
  "\u2581ostroave": 4123,
  "\u2581umar": 4124,
  "\u2581gem": 4125,
  "plini": 4126,
  "Pace": 4127,
  "\u2581Barbat": 4128,
  "\u2581necredincios": 4129,
  "\u2581rosti": 4130,
  "\u2581ocroti": 4131,
  "\u2581H": 4132,
  "\u2581bogati": 4133,
  "zar": 4134,
  "\u2581izbuti": 4135,
  "Chi": 4136,
  "\u2581crestea": 4137,
  "Nimeni": 4138,
  "Astazi": 4139,
  "\u2581prapadit": 4140,
  "\u2581hrani": 4141,
  "aveau": 4142,
  "abia": 4143,
  "\u2581placa": 4144,
  "\u2581mester": 4145,
  "Mania": 4146,
  "\u2581pazest": 4147,
  "\u2581bucuri": 4148,
  "Spuneti": 4149,
  "\u2581grasime": 4150,
  "\u2581scurgere": 4151,
  "\u2581potrivita": 4152,
  "\u2581mangaiere": 4153,
  "\u2581cantarit": 4154,
  "\u2581trimisi": 4155,
  "\u2581privegher": 4156,
  "\u2581trimisese": 4157,
  "\u2581ziceam": 4158,
  "\u2581postit": 4159,
  "\u2581izbaviti": 4160,
  "\u2581preaiubitul": 4161,
  "),": 4162,
  "\u2581sarbatori": 4163,
  "\u2581invatatori": 4164,
  "\u2581alerg": 4165,
  "Sabia": 4166,
  "\u2581zidita": 4167,
  "\u2581binecuvantari": 4168,
  "\u2581muta": 4169,
  "\u2581simt": 4170,
  "\u2581opriti": 4171,
  "\u2581zacea": 4172,
  "\u2581mestesug": 4173,
  "\u2581R": 4174,
  "\u2581co": 4175,
  "\u2581bogatie": 4176,
  "\u2581fameni": 4177,
  "\u2581dobor": 4178,
  "\u2581incetez": 4179,
  "\u2581numest": 4180,
  "\u2581cedri": 4181,
  "\u2581arie": 4182,
  "us": 4183,
  "\u2581invatati": 4184,
  "\u2581Aroer": 4185,
  "\u2581siclu": 4186,
  "\u2581jaf": 4187,
  "\u2581vartej": 4188,
  "\u2581Hamat": 4189,
  "\u2581intarituri": 4190,
  "\u2581scrisi": 4191,
  "\u2581bland": 4192,
  "\u2581Gomora": 4193,
  "\u2581Ierubaal": 4194,
  "\u2581Maslinilor": 4195,
  "\u2581Netaneel": 4196,
  "\u2581gamalioar": 4197,
  "\u2581osteneala": 4198,
  "\u2581sanatoasa": 4199,
  "\u2581greseala": 4200,
  "\u2581Efron": 4201,
  "\u2581Pashur": 4202,
  "\u2581inmoaie": 4203,
  "\u2581pleava": 4204,
  "\u2581opresc": 4205,
  "\u2581Careah": 4206,
  "\u2581pururi": 4207,
  "\u2581altceva": 4208,
  "\u2581sfatuiesc": 4209,
  "\u2581parasesc": 4210,
  "\u2581cruta": 4211,
  "\u2581gaseasca": 4212,
  "\u2581ascunzi": 4213,
  "\u2581sfintesti": 4214,
  "\u2581faradelegilor": 4215,
  "\u2581mijloace": 4216,
  "\u2581Zif": 4217,
  "\u2581degetele": 4218,
  "\u2581Amram": 4219,
  "\u2581tremurand": 4220,
  "\u2581slobozenia": 4221,
  "\u2581vazusera": 4222,
  "\u2581asupritorilor": 4223,
  "\u2581radacinile": 4224,
  "\u2581stancilor": 4225,
  "\u2581Hesbonului": 4226,
  "\u2581rasplateste": 4227,
  "\u2581pucioasa": 4228,
  "\u2581iesisera": 4229,
  "\u2581bunatatile": 4230,
  "\u2581statura": 4231,
  "\u2581capitanul": 4232,
  "\u2581Artaxerxe": 4233,
  "\u2581Mefiboset": 4234,
  "\u2581infrangere": 4235,
  "sem": 4236,
  "\u2581sfesnicului": 4237,
  "\u2581Agar": 4238,
  "\u2581taratoarele": 4239,
  "\u2581apostolilor": 4240,
  "\u2581camilele": 4241,
  "\u2581prabusit": 4242,
  "\u2581nebunului": 4243,
  "\u2581pastreze": 4244,
  "\u2581mancarea": 4245,
  "\u2581insala": 4246,
  "\u2581cureti": 4247,
  "\u2581Levitii": 4248,
  "\u2581lanturile": 4249,
  "\u2581serpi": 4250,
  "\u2581cercetezi": 4251,
  "\u2581grase": 4252,
  "sezand": 4253,
  "\u2581familiilor": 4254,
  "\u2581intamplase": 4255,
  "\u2581omoara": 4256,
  "\u2581piata": 4257,
  "\u2581saracul": 4258,
  "\u2581fugise": 4259,
  "\u2581Ziua": 4260,
  "\u2581staruie": 4261,
  "\u2581ducand": 4262,
  "\u2581veche": 4263,
  "\u2581inteleptul": 4264,
  "\u2581Apele": 4265,
  "\u2581salbatice": 4266,
  "\u2581unghi": 4267,
  "\u2581dobanda": 4268,
  "\u2581Muntel": 4269,
  "\u2581pregati": 4270,
  "aza": 4271,
  "\u2581abateti": 4272,
  "adan": 4273,
  "\u2581jurase": 4274,
  "\u2581Nicidecum": 4275,
  "\u2581rosii": 4276,
  "\u2581omer": 4277,
  "\u2581dezbinat": 4278,
  "\u2581Tit": 4279,
  "\u2581sprijini": 4280,
  "\u2581rada": 4281,
  "\u2581parinte": 4282,
  "\u2581intin": 4283,
  "\u2581zadarnica": 4284,
  "\u2581necurati": 4285,
  "\u2581biruie": 4286,
  "\u2581Buz": 4287,
  "\u2581legaturi": 4288,
  "\u2581salbatici": 4289,
  "\u2581umbli": 4290,
  "itii": 4291,
  "\u2581calatoria": 4292,
  "\u2581greci": 4293,
  "\u2581demult": 4294,
  "\u2581Ra": 4295,
  "\u2581piei": 4296,
  "\u2581scap": 4297,
  "\u2581acoperisuri": 4298,
  "\u2581navalit": 4299,
  "atul": 4300,
  "\u2581adusa": 4301,
  "\u2581Nis": 4302,
  "\u2581inselati": 4303,
  "\u2581amagi": 4304,
  "\u2581intrebare": 4305,
  "\u2581tovarasul": 4306,
  "\u2581temea": 4307,
  "\u2581mostenitori": 4308,
  "\u2581asezati": 4309,
  "cu": 4310,
  "\u2581napusti": 4311,
  "\u2581manii": 4312,
  "Fii": 4313,
  "\u2581vaii": 4314,
  "\u2581straluci": 4315,
  "\u2581curatie": 4316,
  "\u2581scrisa": 4317,
  "\u2581geme": 4318,
  "\u2581descoperire": 4319,
  "\u2581Pune": 4320,
  "\u2581uscate": 4321,
  "\u2581nimicirea": 4322,
  "\u2581salbatic": 4323,
  "\u2581maslini": 4324,
  "lul": 4325,
  "\u2581ingamfat": 4326,
  "\u2581placuti": 4327,
  "\u2581adevarate": 4328,
  "\u2581drac": 4329,
  "\u2581varf": 4330,
  "\u2581impresura": 4331,
  "\u2581cantati": 4332,
  "\u2581rude": 4333,
  "urilor": 4334,
  "\u2581arc": 4335,
  "\u2581astept": 4336,
  "\u2581stransese": 4337,
  "\u2581pastorul": 4338,
  "\u2581ingriji": 4339,
  "\u2581ard": 4340,
  "\u2581Pen": 4341,
  "\u2581ceri": 4342,
  "\u2581biruitor": 4343,
  "\u2581pangari": 4344,
  "\u2581Ido": 4345,
  "\u2581Bat": 4346,
  "\u2581traiti": 4347,
  "\u2581Tre": 4348,
  "Oricine": 4349,
  "\u2581marita": 4350,
  "\u2581curve": 4351,
  "\u2581obisnuit": 4352,
  "\u2581Batran": 4353,
  "\u2581grea": 4354,
  "\u2581aparare": 4355,
  "\u2581parere": 4356,
  "\u2581ascultau": 4357,
  "\u2581plangea": 4358,
  "\u2581stralucire": 4359,
  "\u2581feluri": 4360,
  "\u2581tinerete": 4361,
  "\u2581asternutul": 4362,
  "\u2581cantece": 4363,
  "\u2581Lasa": 4364,
  "\u2581bunatati": 4365,
  "\u2581gradini": 4366,
  "\u2581savarsi": 4367,
  "\u2581imbarbatat": 4368,
  "\u2581alipit": 4369,
  "\u2581saptamani": 4370,
  "urul": 4371,
  "\u2581caramizi": 4372,
  "\u2581botez": 4373,
  "\u2581siruri": 4374,
  "tocmit": 4375,
  "\u2581despicat": 4376,
  "\u2581Gheba": 4377,
  "\u2581dispret": 4378,
  "z": 4379,
  "\u2581duhuri": 4380,
  "\u2581margine": 4381,
  "\u2581miresme": 4382,
  "\u2581smeri": 4383,
  "\u2581privea": 4384,
  "\u2581fereziti": 4385,
  "Boset": 4386,
  "\u2581Abinadab": 4387,
  "\u2581Barzilai": 4388,
  "\u2581Mahanaim": 4389,
  "\u2581Remalia": 4390,
  "\u2581deslusit": 4391,
  "\u2581Abihu": 4392,
  "\u2581Sefatia": 4393,
  "\u2581fildes": 4394,
  "\u2581Recab": 4395,
  "\u2581balega": 4396,
  "\u2581deopotriva": 4397,
  "\u2581Gog": 4398,
  "\u2581Ofir": 4399,
  "\u2581goana": 4400,
  "\u2581inveselesc": 4401,
  "\u2581Mahli": 4402,
  "\u2581turturele": 4403,
  "\u2581Andrei": 4404,
  "\u2581Neco": 4405,
  "\u2581ucizi": 4406,
  "\u2581inmulteasca": 4407,
  "\u2581Iozabad": 4408,
  "\u2581chehatitilor": 4409,
  "\u2581Hatar": 4410,
  "\u2581Esterei": 4411,
  "\u2581otrava": 4412,
  "\u2581Nebo": 4413,
  "\u2581Osea": 4414,
  "\u2581duhovnicesti": 4415,
  "\u2581cuibul": 4416,
  "\u2581sfintesc": 4417,
  "\u2581hetitilor": 4418,
  "\u2581tipat": 4419,
  "\u2581Hamor": 4420,
  "\u2581patruns": 4421,
  "\u2581rugina": 4422,
  "\u2581zidise": 4423,
  "\u2581spartura": 4424,
  "\u2581Soarele": 4425,
  "\u2581Libna": 4426,
  "\u2581ostilor": 4427,
  "\u2581invioreaza": 4428,
  "\u2581zavoarele": 4429,
  "\u2581bisericile": 4430,
  "\u2581secerisului": 4431,
  "\u2581broaste": 4432,
  "\u2581Amot": 4433,
  "\u2581pastorilor": 4434,
  "\u2581gramezi": 4435,
  "\u2581Husai": 4436,
  "\u2581doboara": 4437,
  "\u2581crezi": 4438,
  "\u2581lacustele": 4439,
  "\u2581dregatorului": 4440,
  "\u2581Betleemul": 4441,
  "\u2581gropi": 4442,
  "\u2581asaza": 4443,
  "\u2581desfatarea": 4444,
  "\u2581trufasi": 4445,
  "\u2581incinge": 4446,
  "\u2581boli": 4447,
  "\u2581schimbul": 4448,
  "\u2581lacrimile": 4449,
  "\u2581Ingerului": 4450,
  "\u2581Zimri": 4451,
  "rele": 4452,
  "\u2581Hebronul": 4453,
  "\u2581ocol": 4454,
  "\u2581teaca": 4455,
  "\u2581pacatuire": 4456,
  "\u2581harului": 4457,
  "\u2581laptele": 4458,
  "\u2581Bela": 4459,
  "\u2581aripa": 4460,
  "\u2581aleasa": 4461,
  "\u2581perete": 4462,
  "\u2581graunte": 4463,
  "\u2581intunericului": 4464,
  "Imparate": 4465,
  "\u2581pulberea": 4466,
  "\u2581auziti": 4467,
  "\u2581vedeniil": 4468,
  "\u2581veselia": 4469,
  "\u2581rasaritului": 4470,
  "\u2581credem": 4471,
  "\u2581latura": 4472,
  "\u2581vanda": 4473,
  "\u2581Sela": 4474,
  "\u2581poal": 4475,
  "\u2581amaleciti": 4476,
  "\u2581pofte": 4477,
  "\u2581mangaia": 4478,
  "\u2581vazatorul": 4479,
  "\u2581asprimea": 4480,
  "\u2581hotarase": 4481,
  "\u2581Pruncul": 4482,
  "\u2581sinagogii": 4483,
  "\u2581astupat": 4484,
  "\u2581vise": 4485,
  "\u2581schiopi": 4486,
  "\u2581razbunarea": 4487,
  "\u2581cantaretii": 4488,
  "\u2581potire": 4489,
  "\u2581uscata": 4490,
  "\u2581margini": 4491,
  "\u2581stapanitor": 4492,
  "\u2581deschisi": 4493,
  "\u2581intrebuinta": 4494,
  "\u2581intrebari": 4495,
  "\u2581poftiti": 4496,
  "\u2581impreunare": 4497,
  "elor": 4498,
  "\u2581pasuni": 4499,
  "\u2581ducem": 4500,
  "\u2581intoarcem": 4501,
  "\u2581rascumparati": 4502,
  "\u2581parea": 4503,
  "\u2581sacul": 4504,
  "\u2581oala": 4505,
  "\u2581spel": 4506,
  "\u2581pacatuiti": 4507,
  "\u2581luam": 4508,
  "\u2581culesul": 4509,
  "\u2581deosebita": 4510,
  "\u2581credinciosii": 4511,
  "\u2581cereau": 4512,
  "\u2581cetei": 4513,
  "\u2581blesteme": 4514,
  "\u2581pedepse": 4515,
  "\u2581strabate": 4516,
  "\u2581tarat": 4517,
  "\u2581jefui": 4518,
  "\u2581urzea": 4519,
  "\u2581ingropa": 4520,
  "\u2581padurea": 4521,
  "etatile": 4522,
  "\u2581departati": 4523,
  "\u2581Striga": 4524,
  "\u2581juru": 4525,
  "\u2581iscusit": 4526,
  "\u2581Z": 4527,
  "zecimi": 4528,
  "\u2581pecetluit": 4529,
  "\u2581madular": 4530,
  "\u2581corn": 4531,
  "uvintele": 4532,
  "\u2581indelung": 4533,
  "\u2581potrivnicul": 4534,
  "\u2581intampina": 4535,
  "\u2581atatat": 4536,
  "drac": 4537,
  "\u2581scol": 4538,
  "ori": 4539,
  "\u2581incaltaminte": 4540,
  "\u2581ingadui": 4541,
  "\u2581impiedicat": 4542,
  "\u2581scumpa": 4543,
  "\u2581iscod": 4544,
  "\u2581datori": 4545,
  "\u2581fatarnici": 4546,
  "aduc": 4547,
  "\u2581inflori": 4548,
  "Vor": 4549,
  "Stii": 4550,
  "Trimite": 4551,
  "fa": 4552,
  "Adu": 4553,
  "Robul": 4554,
  "Aduceti": 4555,
  "Vedeti": 4556,
  "Faceti": 4557,
  "\u2581batjocuri": 4558,
  "\u2581dintii": 4559,
  "\u2581Preaiubitul": 4560,
  "\u2581Par": 4561,
  "\u2581imbracaminte": 4562,
  "\u2581amaraciune": 4563,
  "\u2581taiate": 4564,
  "\u2581ungere": 4565,
  "ascultati": 4566,
  "\u2581corabiei": 4567,
  "\u2581tipete": 4568,
  "\u2581razbunare": 4569,
  "\u2581ibovnici": 4570,
  "\u2581ascultare": 4571,
  "\u2581dainuie": 4572,
  "\u2581astupa": 4573,
  "\u2581oaspeti": 4574,
  "\u2581curte": 4575,
  "\u2581iebusiti": 4576,
  "\u2581descoperita": 4577,
  "\u2581parinti": 4578,
  "Ne": 4579,
  "\u2581cobor": 4580,
  "\u2581darama": 4581,
  "\u2581miez": 4582,
  "\u2581gelozie": 4583,
  "\u2581gaditi": 4584,
  "\u2581vrajitori": 4585,
  "\u2581caprioar": 4586,
  "\u2581razboaie": 4587,
  "\u2581starui": 4588,
  "\u2581Cetat": 4589,
  "\u2581intreb": 4590,
  "\u2581Zi": 4591,
  "\u2581levit": 4592,
  "\u2581indelunga": 4593,
  "\u2581nevazut": 4594,
  "\u2581Scoate": 4595,
  "\u2581rasplatit": 4596,
  "\u2581primita": 4597,
  "\u2581Mac": 4598,
  "\u2581impotrivit": 4599,
  "\u2581imprastia": 4600,
  "\u2581celorlalt": 4601,
  "\u2581vultur": 4602,
  "\u2581gunoi": 4603,
  "\u2581indrept": 4604,
  "\u2581unu": 4605,
  "\u2581Mari": 4606,
  "\u2581Hadarezer": 4607,
  "\u2581Iafet": 4608,
  "\u2581Melhisedec": 4609,
  "\u2581Talmuna": 4610,
  "\u2581Zebedei": 4611,
  "\u2581gelozia": 4612,
  "\u2581mreaja": 4613,
  "\u2581smirna": 4614,
  "\u2581Berechia": 4615,
  "\u2581inteleapta": 4616,
  "\u2581Baraba": 4617,
  "\u2581plamadeala": 4618,
  "\u2581Magdalena": 4619,
  "\u2581firimituri": 4620,
  "\u2581topesc": 4621,
  "\u2581Chedes": 4622,
  "\u2581Chedron": 4623,
  "\u2581Priveste": 4624,
  "\u2581Zicri": 4625,
  "\u2581cheotori": 4626,
  "\u2581Ochiul": 4627,
  "\u2581privintele": 4628,
  "\u2581viclean": 4629,
  "\u2581Ieiel": 4630,
  "\u2581cocosul": 4631,
  "\u2581Ebed": 4632,
  "\u2581dispretuiesc": 4633,
  "\u2581plateasca": 4634,
  "\u2581Betania": 4635,
  "\u2581pregatesc": 4636,
  "\u2581Vegheati": 4637,
  "\u2581Paran": 4638,
  "\u2581altadata": 4639,
  "\u2581pomina": 4640,
  "\u2581Baana": 4641,
  "\u2581ramasese": 4642,
  "\u2581bisericilor": 4643,
  "\u2581Roma": 4644,
  "\u2581culcusul": 4645,
  "\u2581cumpere": 4646,
  "\u2581mierea": 4647,
  "\u2581safir": 4648,
  "\u2581coapsa": 4649,
  "\u2581risipeste": 4650,
  "\u2581dealurilor": 4651,
  "\u2581florile": 4652,
  "\u2581vegheaza": 4653,
  "\u2581necredincioasa": 4654,
  "\u2581praful": 4655,
  "\u2581mitra": 4656,
  "\u2581Sidonului": 4657,
  "\u2581cuvantarile": 4658,
  "\u2581sters": 4659,
  "\u2581tulbure": 4660,
  "\u2581secerisul": 4661,
  "\u2581ocarile": 4662,
  "\u2581sufletelor": 4663,
  "\u2581sosire": 4664,
  "\u2581hula": 4665,
  "\u2581preaiubitilor": 4666,
  "\u2581zidurilor": 4667,
  "\u2581pacatosilor": 4668,
  "\u2581mistuitor": 4669,
  "\u2581dobitocul": 4670,
  "\u2581pazeau": 4671,
  "\u2581Madianului": 4672,
  "\u2581Hanan": 4673,
  "\u2581Sihemului": 4674,
  "\u2581pas": 4675,
  "\u2581Ave": 4676,
  "\u2581cadelnita": 4677,
  "\u2581ramura": 4678,
  "\u2581uneltire": 4679,
  "\u2581vanturile": 4680,
  "\u2581sfinteasca": 4681,
  "\u2581Edomul": 4682,
  "\u2581primise": 4683,
  "\u2581iuti": 4684,
  "\u2581incalecat": 4685,
  "\u2581nuiele": 4686,
  "\u2581incerce": 4687,
  "\u2581madulare": 4688,
  "Le": 4689,
  "\u2581ingerilor": 4690,
  "Arba": 4691,
  "\u2581roadelor": 4692,
  "\u2581vitejilor": 4693,
  "\u2581omeneasca": 4694,
  "\u2581auzea": 4695,
  "mpreuna": 4696,
  "\u2581clatine": 4697,
  "\u2581mormantului": 4698,
  "\u2581strangere": 4699,
  "\u2581vitelor": 4700,
  "\u2581poruncilor": 4701,
  "\u2581materii": 4702,
  "\u2581rosi": 4703,
  "\u2581Pain": 4704,
  "\u2581iazul": 4705,
  "\u2581famen": 4706,
  "\u2581ispita": 4707,
  "\u2581zidim": 4708,
  "\u2581usorii": 4709,
  "\u2581dealul": 4710,
  "\u2581No": 4711,
  "\u2581murise": 4712,
  "\u2581cartit": 4713,
  "\u2581copilas": 4714,
  "\u2581santuri": 4715,
  "\u2581talmacit": 4716,
  "\u2581apropii": 4717,
  "\u2581Afara": 4718,
  "\u2581fluier": 4719,
  "\u2581incotro": 4720,
  "\u2581ingrijit": 4721,
  "\u2581imparatiilor": 4722,
  "\u2581ingrasat": 4723,
  "\u2581priceputi": 4724,
  "\u2581stravechi": 4725,
  "\u2581prezbiteri": 4726,
  "\u2581vazuse": 4727,
  "\u2581iscusiti": 4728,
  "ceteze": 4729,
  "\u2581snopi": 4730,
  "\u2581cedrii": 4731,
  "\u2581cugeta": 4732,
  "arul": 4733,
  "\u2581taca": 4734,
  "\u2581cercetari": 4735,
  "\u2581impodobita": 4736,
  "\u2581miscare": 4737,
  "\u2581mareasca": 4738,
  "\u2581vindeau": 4739,
  "\u2581Ridica": 4740,
  "\u2581inveti": 4741,
  "\u2581deosebi": 4742,
  "\u2581Binecuvanta": 4743,
  "\u2581multimi": 4744,
  "\u2581carari": 4745,
  "\u2581veghea": 4746,
  "\u2581strangeti": 4747,
  "\u2581propovaduia": 4748,
  "\u2581urs": 4749,
  "\u2581grai": 4750,
  "\u2581ocrotire": 4751,
  "\u2581ingamfati": 4752,
  "\u2581Pleaca": 4753,
  "\u2581lucrau": 4754,
  "\u2581urate": 4755,
  "\u2581induplecat": 4756,
  "\u2581arati": 4757,
  "\u2581salbatica": 4758,
  "\u2581tulburare": 4759,
  "\u2581gandea": 4760,
  "\u2581Vedeti": 4761,
  "\u2581ostii": 4762,
  "\u2581hranit": 4763,
  "\u2581apasare": 4764,
  "\u2581vieri": 4765,
  "\u2581Duceti": 4766,
  "\u2581intaratat": 4767,
  "\u2581implinita": 4768,
  "\u2581Astazi": 4769,
  "\u2581douasprezecea": 4770,
  "\u2581urgiei": 4771,
  "\u2581turnate": 4772,
  "\u2581aprinse": 4773,
  "\u2581icoane": 4774,
  "\u2581iertati": 4775,
  "\u2581judec": 4776,
  "\u2581vasul": 4777,
  "\u2581uda": 4778,
  "\u2581izbutit": 4779,
  "\u2581ingrop": 4780,
  "\u2581invinui": 4781,
  "orodul": 4782,
  "\u2581plangere": 4783,
  "\u2581intelepte": 4784,
  "\u2581sfetnic": 4785,
  "\u2581Me": 4786,
  "\u2581Sol": 4787,
  "\u2581apuc": 4788,
  "\u2581starnest": 4789,
  "\u2581stapaniti": 4790,
  "\u2581poticni": 4791,
  "\u2581boci": 4792,
  "\u2581raspandea": 4793,
  "\u2581asupritor": 4794,
  "\u2581auzise": 4795,
  "\u2581cornul": 4796,
  "\u2581iesind": 4797,
  "\u2581spurcati": 4798,
  "\u2581intristarea": 4799,
  "\u2581heruvimii": 4800,
  "\u2581infatisati": 4801,
  "\u2581curga": 4802,
  "\u2581linistita": 4803,
  "\u2581verigil": 4804,
  "\u2581intemnitat": 4805,
  "\u2581lepros": 4806,
  "\u2581unge": 4807,
  "\u2581stejarul": 4808,
  "ita": 4809,
  "\u2581frange": 4810,
  "\u2581curati": 4811,
  "\u2581Pace": 4812,
  "\u2581Vin": 4813,
  "\u2581leul": 4814,
  "\u2581luate": 4815,
  "Intinde": 4816,
  "\u2581asupritori": 4817,
  "\u2581urati": 4818,
  "\u2581zdrobita": 4819,
  "ut": 4820,
  "\u2581Ferest": 4821,
  "\u2581culeg": 4822,
  "\u2581primejdi": 4823,
  "\u2581tragea": 4824,
  "\u2581galaadit": 4825,
  "\u2581suspina": 4826,
  "Trebui": 4827,
  "Destul": 4828,
  "Scoate": 4829,
  "\u2581inteleg": 4830,
  "\u2581mita": 4831,
  "Maine": 4832,
  "Pleaca": 4833,
  "Vreau": 4834,
  "\u2581raniti": 4835,
  "\u2581tarasc": 4836,
  "\u2581batjocoritor": 4837,
  "\u2581Stefan": 4838,
  "\u2581surpat": 4839,
  "\u2581cinstit": 4840,
  "\u2581Invata": 4841,
  "\u2581necinstit": 4842,
  "\u2581asprime": 4843,
  "\u2581numara": 4844,
  "\u2581cunostea": 4845,
  "\u2581avere": 4846,
  "\u2581mustrare": 4847,
  "\u2581dureri": 4848,
  "\u2581pierd": 4849,
  "\u2581cadere": 4850,
  "\u2581indraznit": 4851,
  "\u2581tar": 4852,
  "\u2581Ram": 4853,
  "\u2581sirieni": 4854,
  "\u2581ferit": 4855,
  "\u2581plimba": 4856,
  "\u2581indeparta": 4857,
  "\u2581rascumpara": 4858,
  "\u2581magarite": 4859,
  "\u2581altui": 4860,
  "\u2581asteptat": 4861,
  "\u2581spitel": 4862,
  "\u2581mese": 4863,
  "\u2581Hanani": 4864,
  "\u2581Zil": 4865,
  "bed": 4866,
  "\u2581zbura": 4867,
  "aria": 4868,
  "\u2581saptesprezece": 4869,
  "\u2581Ecron": 4870,
  "\u2581baiat": 4871,
  "\u2581necuratie": 4872,
  "\u2581tinuturi": 4873,
  "\u2581pregat": 4874,
  "\u2581Ticlag": 4875,
  "\u2581praf": 4876,
  "\u2581ploua": 4877,
  "\u2581arme": 4878,
  "\u2581soacr": 4879,
  "\u2581Pecah": 4880,
  "\u2581sufle": 4881,
  "\u2581lighene": 4882,
  "\u2581prap": 4883,
  "amanuntul": 4884,
  "\u2581Agripa": 4885,
  "\u2581Ceilalti": 4886,
  "\u2581Iscarioteanul": 4887,
  "\u2581Lameh": 4888,
  "\u2581Lungimea": 4889,
  "\u2581Micmas": 4890,
  "\u2581Ornan": 4891,
  "\u2581Sanbalat": 4892,
  "\u2581Telofhad": 4893,
  "\u2581dinadinsul": 4894,
  "\u2581paguba": 4895,
  "\u2581ingroape": 4896,
  "\u2581rumega": 4897,
  "\u2581optulea": 4898,
  "\u2581rastoarna": 4899,
  "\u2581Tecoa": 4900,
  "\u2581inmultesc": 4901,
  "\u2581prigonesc": 4902,
  "\u2581Apolo": 4903,
  "\u2581Chenaz": 4904,
  "\u2581Abiram": 4905,
  "\u2581Hanun": 4906,
  "\u2581pandesc": 4907,
  "\u2581Retin": 4908,
  "\u2581Ribla": 4909,
  "\u2581Ostasii": 4910,
  "\u2581Iedaia": 4911,
  "\u2581opreasca": 4912,
  "\u2581trufie": 4913,
  "\u2581Rascumparatorul": 4914,
  "\u2581izbavesc": 4915,
  "\u2581optsprezecelea": 4916,
  "\u2581Ioah": 4917,
  "\u2581tarmul": 4918,
  "\u2581Elihu": 4919,
  "\u2581Terah": 4920,
  "\u2581preacurvesti": 4921,
  "\u2581crapaturile": 4922,
  "\u2581potoleste": 4923,
  "\u2581onix": 4924,
  "\u2581Padan": 4925,
  "\u2581Hagai": 4926,
  "\u2581pacatuiesc": 4927,
  "\u2581preacurveste": 4928,
  "\u2581chimvale": 4929,
  "\u2581roata": 4930,
  "\u2581Harim": 4931,
  "\u2581carligele": 4932,
  "\u2581urasti": 4933,
  "\u2581stapanesti": 4934,
  "\u2581iebusitilor": 4935,
  "\u2581chibzuinta": 4936,
  "\u2581seceratului": 4937,
  "\u2581trantit": 4938,
  "\u2581gemetele": 4939,
  "\u2581paraseste": 4940,
  "\u2581imprastie": 4941,
  "\u2581lucratorilor": 4942,
  "\u2581filisteanului": 4943,
  "\u2581Anac": 4944,
  "\u2581cetatuile": 4945,
  "\u2581comorile": 4946,
  "\u2581praznicul": 4947,
  "\u2581auzind": 4948,
  "\u2581macel": 4949,
  "\u2581imbatranit": 4950,
  "Intreaba": 4951,
  "\u2581urla": 4952,
  "\u2581dracilor": 4953,
  "\u2581magarita": 4954,
  "\u2581ostasilor": 4955,
  "\u2581Beria": 4956,
  "marile": 4957,
  "\u2581Toma": 4958,
  "\u2581nimicirii": 4959,
  "\u2581olog": 4960,
  "\u2581sature": 4961,
  "\u2581Uzi": 4962,
  "\u2581cutremurat": 4963,
  "\u2581Stim": 4964,
  "\u2581vizuina": 4965,
  "Ha": 4966,
  "\u2581Raba": 4967,
  "\u2581iubim": 4968,
  "\u2581mancand": 4969,
  "\u2581stramtorarii": 4970,
  "otadac": 4971,
  "\u2581Raului": 4972,
  "\u2581Baalilor": 4973,
  "\u2581suparare": 4974,
  "\u2581portilor": 4975,
  "\u2581tanarului": 4976,
  "\u2581Dagon": 4977,
  "\u2581Libanul": 4978,
  "\u2581ceresc": 4979,
  "\u2581frau": 4980,
  "\u2581padurii": 4981,
  "\u2581des": 4982,
  "\u2581palme": 4983,
  "\u2581omoram": 4984,
  "\u2581tacere": 4985,
  "\u2581feciori": 4986,
  "\u2581mirele": 4987,
  "\u2581strainilor": 4988,
  "\u2581lustruita": 4989,
  "\u2581camata": 4990,
  "\u2581atatia": 4991,
  "\u2581pierderea": 4992,
  "\u2581rasturnat": 4993,
  "\u2581Meghido": 4994,
  "\u2581cinsteasca": 4995,
  "\u2581adusesera": 4996,
  "\u2581izbucni": 4997,
  "\u2581despartire": 4998,
  "\u2581lunile": 4999,
  "\u2581calce": 5000,
  "\u2581indrepte": 5001,
  "\u2581suferinte": 5002,
  "\u2581rusinati": 5003,
  "\u2581cartii": 5004,
  "\u2581Be": 5005,
  "\u2581graului": 5006,
  "Fiule": 5007,
  "\u2581culce": 5008,
  "pii": 5009,
  "torni": 5010,
  "\u2581dadusem": 5011,
  "pusesem": 5012,
  "\u2581intamplare": 5013,
  "\u2581lucram": 5014,
  "\u2581auzim": 5015,
  "\u2581manta": 5016,
  "\u2581aratase": 5017,
  "\u2581oricat": 5018,
  "\u2581lucratorii": 5019,
  "\u2581Adar": 5020,
  "\u2581usi": 5021,
  "\u2581tinutului": 5022,
  "\u2581presarat": 5023,
  "\u2581nevinovatia": 5024,
  "\u2581pocait": 5025,
  "\u2581framanta": 5026,
  "\u2581mergand": 5027,
  "\u2581slujnicel": 5028,
  "\u2581preotiei": 5029,
  "\u2581Toba": 5030,
  "\u2581incetare": 5031,
  "\u2581poruncisem": 5032,
  "\u2581jertfite": 5033,
  "\u2581rasune": 5034,
  "\u2581fala": 5035,
  "\u2581vestise": 5036,
  "\u2581mirau": 5037,
  "\u2581spu": 5038,
  "\u2581butuci": 5039,
  "\u2581bateti": 5040,
  "\u2581usierii": 5041,
  "\u2581scaune": 5042,
  "\u2581marfuri": 5043,
  "\u2581intrebuintare": 5044,
  "\u2581ajutoare": 5045,
  "\u2581dusese": 5046,
  "\u2581mangaiati": 5047,
  "\u2581strugurii": 5048,
  "pretuieste": 5049,
  "\u2581rinichii": 5050,
  "\u2581iertate": 5051,
  "\u2581trecuse": 5052,
  "\u2581ceas": 5053,
  "\u2581imprumutat": 5054,
  "\u2581atingea": 5055,
  "\u2581catari": 5056,
  "\u2581ingreuiat": 5057,
  "\u2581insarcinate": 5058,
  "\u2581amoritii": 5059,
  "\u2581despicata": 5060,
  "\u2581cereti": 5061,
  "parga": 5062,
  "\u2581tarm": 5063,
  "\u2581varat": 5064,
  "tarul": 5065,
  "\u2581Sama": 5066,
  "\u2581Preaiubit": 5067,
  "\u2581vinovata": 5068,
  "\u2581scutura": 5069,
  "\u2581lut": 5070,
  "\u2581unga": 5071,
  "\u2581intarea": 5072,
  "\u2581gandi": 5073,
  "\u2581cazi": 5074,
  "\u2581suferiti": 5075,
  "\u2581larga": 5076,
  "\u2581slujbe": 5077,
  "\u2581frumosi": 5078,
  "\u2581lamurit": 5079,
  "\u2581necuratia": 5080,
  "\u2581gust": 5081,
  "\u2581sune": 5082,
  "\u2581aluneca": 5083,
  "\u2581razbunat": 5084,
  "\u2581poruncii": 5085,
  "\u2581locasuri": 5086,
  "\u2581impiedica": 5087,
  "\u2581avutii": 5088,
  "\u2581dor": 5089,
  "\u2581ur": 5090,
  "\u2581campiei": 5091,
  "\u2581aprindere": 5092,
  "\u2581vicleni": 5093,
  "\u2581trecand": 5094,
  "\u2581prorocie": 5095,
  "\u2581asfintit": 5096,
  "\u2581sapa": 5097,
  "\u2581calatori": 5098,
  "\u2581osti": 5099,
  "\u2581impreunat": 5100,
  "\u2581muste": 5101,
  "\u2581frunze": 5102,
  "\u2581perde": 5103,
  "\u2581finic": 5104,
  "Baal": 5105,
  "Atunci": 5106,
  "\u2581Stii": 5107,
  "\u2581vars": 5108,
  "\u2581boteza": 5109,
  "\u2581stricata": 5110,
  "\u2581ascund": 5111,
  "\u2581Trebui": 5112,
  "\u2581grec": 5113,
  "tai": 5114,
  "\u2581necinstest": 5115,
  "\u2581U": 5116,
  "\u2581capatai": 5117,
  "\u2581furi": 5118,
  "Vad": 5119,
  "ah": 5120,
  "Cuvantul": 5121,
  "\u2581st": 5122,
  "\u2581spurcata": 5123,
  "adevar": 5124,
  "eze": 5125,
  "Aram": 5126,
  "Niciodata": 5127,
  "Imparatia": 5128,
  "Ei": 5129,
  "\u2581oricu": 5130,
  "Oamenii": 5131,
  "\u2581dormi": 5132,
  "\u2581nari": 5133,
  "Apropie": 5134,
  "\u2581intalnest": 5135,
  "anul": 5136,
  "\u2581sun": 5137,
  "rezi": 5138,
  "\u2581fereas": 5139,
  "Puneti": 5140,
  "\u2581ingrijest": 5141,
  "\u2581unchiul": 5142,
  "\u2581straina": 5143,
  "\u2581rusina": 5144,
  "\u2581inselaciune": 5145,
  "atoare": 5146,
  "ocurile": 5147,
  "\u2581lacom": 5148,
  "\u2581frumusete": 5149,
  "osuri": 5150,
  "\u2581iertare": 5151,
  "\u2581to": 5152,
  "\u2581nora": 5153,
  "\u2581copt": 5154,
  "rdeau": 5155,
  "\u2581grabi": 5156,
  "\u2581secat": 5157,
  "\u2581mielul": 5158,
  "\u2581calauzit": 5159,
  "\u2581plansul": 5160,
  "\u2581jeli": 5161,
  "\u2581lacomi": 5162,
  "\u2581stralucea": 5163,
  "\u2581deschisa": 5164,
  "\u2581nesocoti": 5165,
  "\u2581gandit": 5166,
  "\u2581intarata": 5167,
  "\u2581Ghera": 5168,
  "\u2581domnitori": 5169,
  "\u2581intinsese": 5170,
  "\u2581zecim": 5171,
  "\u2581Cus": 5172,
  "\u2581stralucit": 5173,
  "ba": 5174,
  "\u2581impodobit": 5175,
  "\u2581lucratori": 5176,
  "\u2581chibzuit": 5177,
  "\u2581judecatorul": 5178,
  "\u2581nebuni": 5179,
  "\u2581soiuri": 5180,
  "\u2581Eglon": 5181,
  "\u2581hulit": 5182,
  "\u2581scrasn": 5183,
  "\u2581turnuri": 5184,
  "\u2581potop": 5185,
  "\u2581paraie": 5186,
  "\u2581iscoade": 5187,
  "\u2581nisip": 5188,
  "\u2581road": 5189,
  "\u2581otet": 5190,
  "oasa": 5191,
  "\u2581indreptati": 5192,
  "\u2581Scripturi": 5193,
  "lasul": 5194,
  "\u2581zadar": 5195,
  "\u2581Gomorei": 5196,
  "\u2581Ieconia": 5197,
  "\u2581Ieroham": 5198,
  "\u2581Ietro": 5199,
  "\u2581Nahson": 5200,
  "\u2581Netofa": 5201,
  "\u2581Rahelei": 5202,
  "\u2581Sealtiel": 5203,
  "\u2581Secania": 5204,
  "\u2581Tefania": 5205,
  "\u2581Abiezer": 5206,
  "\u2581celuilalt": 5207,
  "\u2581intepenit": 5208,
  "Barnea": 5209,
  "\u2581ragaz": 5210,
  "\u2581preasfinte": 5211,
  "\u2581Selemia": 5212,
  "\u2581batjocoreasca": 5213,
  "\u2581invoiala": 5214,
  "\u2581inmuiat": 5215,
  "\u2581indoiala": 5216,
  "\u2581Betuel": 5217,
  "\u2581Corturilor": 5218,
  "\u2581primesc": 5219,
  "\u2581Departeaza": 5220,
  "\u2581Imparateasa": 5221,
  "\u2581Neriia": 5222,
  "\u2581migdal": 5223,
  "\u2581refaimitilor": 5224,
  "\u2581sfintenia": 5225,
  "\u2581osandeste": 5226,
  "\u2581doarme": 5227,
  "\u2581Datan": 5228,
  "\u2581pedepsesti": 5229,
  "\u2581mezilor": 5230,
  "\u2581pedepsesc": 5231,
  "\u2581Reuel": 5232,
  "\u2581Gaal": 5233,
  "\u2581ficatului": 5234,
  "\u2581urmaresc": 5235,
  "\u2581Beerot": 5236,
  "\u2581intregime": 5237,
  "\u2581alergatorilor": 5238,
  "\u2581pridvorul": 5239,
  "\u2581marturiseasca": 5240,
  "\u2581Nahas": 5241,
  "\u2581evlavia": 5242,
  "\u2581Acan": 5243,
  "\u2581propovaduiasca": 5244,
  "\u2581doisprezecelea": 5245,
  "\u2581Mamre": 5246,
  "\u2581Beor": 5247,
  "\u2581neintelegere": 5248,
  "\u2581zorile": 5249,
  "\u2581retea": 5250,
  "\u2581Imer": 5251,
  "\u2581Inalta": 5252,
  "\u2581Iope": 5253,
  "\u2581mar": 5254,
  "\u2581inmulteste": 5255,
  "\u2581tarusii": 5256,
  "\u2581caderii": 5257,
  "\u2581Sub": 5258,
  "\u2581duhurilor": 5259,
  "\u2581altminteri": 5260,
  "\u2581dreptatii": 5261,
  "\u2581Milo": 5262,
  "\u2581rostise": 5263,
  "\u2581panzele": 5264,
  "\u2581Rafa": 5265,
  "\u2581primesti": 5266,
  "\u2581ucenicul": 5267,
  "\u2581spurce": 5268,
  "\u2581famenilor": 5269,
  "\u2581diavolului": 5270,
  "\u2581Scripturile": 5271,
  "\u2581Vasti": 5272,
  "\u2581mesele": 5273,
  "\u2581scuturat": 5274,
  "\u2581numesc": 5275,
  "\u2581Torea": 5276,
  "\u2581bolile": 5277,
  "\u2581paiul": 5278,
  "\u2581usuratic": 5279,
  "\u2581turnului": 5280,
  "Porunceste": 5281,
  "\u2581Micael": 5282,
  "\u2581copacul": 5283,
  "\u2581bem": 5284,
  "\u2581nebunilor": 5285,
  "\u2581foloseste": 5286,
  "\u2581ingrijorati": 5287,
  "\u2581Inaltati": 5288,
  "\u2581Marta": 5289,
  "\u2581infruntati": 5290,
  "Peor": 5291,
  "\u2581scuturile": 5292,
  "\u2581raspunsul": 5293,
  "\u2581infaptui": 5294,
  "\u2581acoperisului": 5295,
  "\u2581muzica": 5296,
  "\u2581propovaduim": 5297,
  "\u2581intarcat": 5298,
  "\u2581ospatul": 5299,
  "\u2581luminii": 5300,
  "\u2581tapul": 5301,
  "\u2581cerb": 5302,
  "\u2581blestemele": 5303,
  "\u2581visele": 5304,
  "\u2581evreu": 5305,
  "\u2581Mariei": 5306,
  "\u2581Mult": 5307,
  "\u2581fulgere": 5308,
  "\u2581Rehob": 5309,
  "\u2581raurilor": 5310,
  "\u2581vadra": 5311,
  "\u2581berbecului": 5312,
  "\u2581matura": 5313,
  "\u2581iarna": 5314,
  "\u2581jucand": 5315,
  "\u2581omenesc": 5316,
  "\u2581locuitoare": 5317,
  "\u2581putrezirea": 5318,
  "\u2581Eliel": 5319,
  "\u2581paraului": 5320,
  "\u2581vegheati": 5321,
  "\u2581incremeniti": 5322,
  "\u2581stapanirii": 5323,
  "\u2581cinsteste": 5324,
  "\u2581fiinta": 5325,
  "\u2581Anania": 5326,
  "\u2581Rugati": 5327,
  "\u2581cuvantari": 5328,
  "\u2581intorceau": 5329,
  "\u2581paras": 5330,
  "\u2581vindece": 5331,
  "\u2581Meriba": 5332,
  "\u2581sfaturi": 5333,
  "\u2581ingropati": 5334,
  "\u2581sortul": 5335,
  "\u2581semeni": 5336,
  "\u2581Gherar": 5337,
  "\u2581apere": 5338,
  "\u2581ocari": 5339,
  "\u2581ginerel": 5340,
  "\u2581inelul": 5341,
  "\u2581datina": 5342,
  "\u2581edomiti": 5343,
  "\u2581seceris": 5344,
  "\u2581ied": 5345,
  "\u2581vantului": 5346,
  "\u2581incredeti": 5347,
  "\u2581os": 5348,
  "Scula": 5349,
  "\u2581faradelegii": 5350,
  "\u2581maritata": 5351,
  "\u2581cainii": 5352,
  "hivotul": 5353,
  "\u2581Zeba": 5354,
  "\u2581Cuvantului": 5355,
  "\u2581tesut": 5356,
  "\u2581Poti": 5357,
  "\u2581aprinsi": 5358,
  "Prin": 5359,
  "\u2581binecuvantata": 5360,
  "\u2581Judecatorul": 5361,
  "\u2581insurat": 5362,
  "ltfel": 5363,
  "\u2581picura": 5364,
  "\u2581dintilor": 5365,
  "\u2581deschiz": 5366,
  "\u2581ingroziti": 5367,
  "\u2581prorociei": 5368,
  ").": 5369,
  "\u2581bucuram": 5370,
  "\u2581zicem": 5371,
  "\u2581rasar": 5372,
  "\u2581intrebau": 5373,
  "\u2581locuite": 5374,
  "\u2581Stiti": 5375,
  "\u2581haldeii": 5376,
  "torul": 5377,
  "ala": 5378,
  "\u2581schimbe": 5379,
  "\u2581cantau": 5380,
  "\u2581privirea": 5381,
  "\u2581Vrei": 5382,
  "\u2581tremur": 5383,
  "\u2581drumului": 5384,
  "\u2581Bo": 5385,
  "\u2581Neprihanit": 5386,
  "\u2581mangaierea": 5387,
  "\u2581Vrajmas": 5388,
  "\u2581sanatosi": 5389,
  "\u2581desavarsiti": 5390,
  "\u2581asupriti": 5391,
  "\u2581osanditi": 5392,
  "\u2581pofti": 5393,
  "\u2581prinse": 5394,
  "\u2581orfani": 5395,
  "\u2581aurului": 5396,
  "\u2581Set": 5397,
  "\u2581Simea": 5398,
  "\u2581Chir": 5399,
  "colo": 5400,
  "din": 5401,
  "\u2581sunati": 5402,
  "\u2581injunghiati": 5403,
  "\u2581scapi": 5404,
  "\u2581strajeri": 5405,
  "\u2581ingramadi": 5406,
  "\u2581talp": 5407,
  "\u2581ieri": 5408,
  "\u2581indurat": 5409,
  "\u2581Aram": 5410,
  "\u2581lucrarii": 5411,
  "\u2581familiei": 5412,
  "\u2581lasase": 5413,
  "\u2581razboinici": 5414,
  "\u2581intemeier": 5415,
  "\u2581spunem": 5416,
  "\u2581niciunui": 5417,
  "\u2581Az": 5418,
  "dad": 5419,
  "\u2581hotarate": 5420,
  "\u2581bastinas": 5421,
  "socoteste": 5422,
  "\u2581rapi": 5423,
  "\u2581ingrij": 5424,
  "\u2581inselatori": 5425,
  "\u2581impartire": 5426,
  "\u2581suflat": 5427,
  "\u2581pricep": 5428,
  "\u2581dracul": 5429,
  "\u2581mira": 5430,
  "\u2581istoris": 5431,
  "\u2581chiparos": 5432,
  "\u2581Trupu": 5433,
  "\u2581israeliti": 5434,
  "\u2581lupt": 5435,
  "\u2581certa": 5436,
  "rot": 5437,
  "\u2581Copil": 5438,
  "\u2581revarsat": 5439,
  "\u2581umplu": 5440,
  "\u2581insemnat": 5441,
  "\u2581stric": 5442,
  "\u2581rabda": 5443,
  "\u2581mesteri": 5444,
  "patul": 5445,
  "Cetate": 5446,
  "\u2581topit": 5447,
  "\u2581izgonise": 5448,
  "Vo": 5449,
  "nii": 5450,
  "\u2581sort": 5451,
  "\u2581adapat": 5452,
  "ceea": 5453,
  "\u2581Adulam": 5454,
  "Iesi": 5455,
  "\u2581scule": 5456,
  "\u2581Ie": 5457,
  "\u2581Pu": 5458,
  "\u2581parasite": 5459,
  "nai": 5460,
  "alurile": 5461,
  "\u2581sf": 5462,
  "Ridica": 5463,
  "\u2581prigonit": 5464,
  "\u2581coborase": 5465,
  "\u2581cazuse": 5466,
  "Vrei": 5467,
  "\u2581gusta": 5468,
  "ada": 5469,
  "\u2581asternut": 5470,
  "hiar": 5471,
  "\u2581Nimic": 5472,
  "\u2581pregatiti": 5473,
  "\u2581mandri": 5474,
  "\u2581potir": 5475,
  "\u2581razvratire": 5476,
  "\u2581zadarnic": 5477,
  "Tara": 5478,
  "\u2581pomenit": 5479,
  "\u2581castigul": 5480,
  "\u2581pierzare": 5481,
  "\u2581asuprire": 5482,
  "\u2581imbatat": 5483,
  "\u2581Vrajmasi": 5484,
  "Lasati": 5485,
  "\u2581binecuvantate": 5486,
  "\u2581pieire": 5487,
  "\u2581despica": 5488,
  "\u2581binefaceri": 5489,
  "\u2581simbria": 5490,
  "\u2581pustiire": 5491,
  "\u2581burduf": 5492,
  "\u2581Slujitor": 5493,
  "\u2581Pi": 5494,
  "\u2581pecete": 5495,
  "\u2581batalie": 5496,
  "\u2581porumbei": 5497,
  "\u2581biserici": 5498,
  "\u2581partas": 5499,
  "erea": 5500,
  "\u2581dinti": 5501,
  "\u2581sfintenie": 5502,
  "\u2581intindere": 5503,
  "\u2581izbavitor": 5504,
  "\u2581trimiti": 5505,
  "\u2581Pot": 5506,
  "\u2581hetiti": 5507,
  "zecile": 5508,
  "\u2581intarire": 5509,
  "\u2581pesteri": 5510,
  "\u2581ajunsese": 5511,
  "\u2581muritor": 5512,
  "\u2581beat": 5513,
  "\u2581intrece": 5514,
  "\u2581Ghezer": 5515,
  "\u2581Dedan": 5516,
  "imba": 5517,
  "\u2581zavoare": 5518,
  "\u2581burdufuri": 5519,
  "\u2581adap": 5520,
  "\u2581bube": 5521,
  "\u2581margaritare": 5522,
  "\u2581radacini": 5523,
  "\u2581Arpacsad": 5524,
  "\u2581Betaleel": 5525,
  "\u2581Ehud": 5526,
  "\u2581Elioenai": 5527,
  "\u2581Macheda": 5528,
  "\u2581neinsemnat": 5529,
  "\u2581obarsi": 5530,
  "\u2581pleoapel": 5531,
  "\u2581Caiafa": 5532,
  "\u2581Itehar": 5533,
  "\u2581laturalnice": 5534,
  "\u2581Afec": 5535,
  "\u2581Hadadezer": 5536,
  "\u2581grinzi": 5537,
  "\u2581prajini": 5538,
  "\u2581Zebadia": 5539,
  "\u2581Zacur": 5540,
  "\u2581neghina": 5541,
  "\u2581Amihud": 5542,
  "\u2581oboseala": 5543,
  "\u2581desarta": 5544,
  "\u2581Otniel": 5545,
  "\u2581desteptat": 5546,
  "\u2581lovesc": 5547,
  "\u2581prabuseste": 5548,
  "Gheber": 5549,
  "\u2581Iabin": 5550,
  "\u2581Sebna": 5551,
  "\u2581lesne": 5552,
  "\u2581barna": 5553,
  "\u2581Aravna": 5554,
  "\u2581Iobab": 5555,
  "\u2581Selomit": 5556,
  "\u2581ispiteasca": 5557,
  "\u2581ratacesc": 5558,
  "\u2581grasimile": 5559,
  "\u2581batatura": 5560,
  "\u2581soborul": 5561,
  "\u2581ghersonitilor": 5562,
  "\u2581dulci": 5563,
  "\u2581mireasa": 5564,
  "\u2581odihneasca": 5565,
  "\u2581racneste": 5566,
  "\u2581fagaduise": 5567,
  "\u2581Chifa": 5568,
  "\u2581Ieus": 5569,
  "\u2581priveasca": 5570,
  "\u2581citeste": 5571,
  "\u2581lopetile": 5572,
  "\u2581seceratorilor": 5573,
  "\u2581solzi": 5574,
  "\u2581cenusarele": 5575,
  "Aven": 5576,
  "\u2581Etan": 5577,
  "\u2581propovaduiesc": 5578,
  "\u2581Selah": 5579,
  "\u2581plinatatea": 5580,
  "\u2581Adaia": 5581,
  "\u2581pieptarul": 5582,
  "\u2581prapadeasca": 5583,
  "\u2581Edenului": 5584,
  "\u2581stapanesc": 5585,
  "\u2581Pastorul": 5586,
  "\u2581mrejele": 5587,
  "\u2581Haldeea": 5588,
  "\u2581intaritura": 5589,
  "\u2581pregatise": 5590,
  "\u2581boabe": 5591,
  "\u2581filisteanul": 5592,
  "\u2581simtit": 5593,
  "\u2581neascultare": 5594,
  "\u2581Horma": 5595,
  "\u2581pornirile": 5596,
  "\u2581Ecronului": 5597,
  "\u2581aprozii": 5598,
  "\u2581Sobal": 5599,
  "\u2581mosiile": 5600,
  "\u2581Naama": 5601,
  "\u2581ulcior": 5602,
  "\u2581mladitele": 5603,
  "\u2581intreaba": 5604,
  "catuie": 5605,
  "\u2581gustul": 5606,
  "\u2581Musi": 5607,
  "\u2581pazind": 5608,
  "\u2581scandura": 5609,
  "\u2581Pastilor": 5610,
  "\u2581umflatura": 5611,
  "\u2581uitarii": 5612,
  "\u2581sulitele": 5613,
  "\u2581Debora": 5614,
  "\u2581paraiele": 5615,
  "\u2581scoasa": 5616,
  "\u2581preotesti": 5617,
  "\u2581Li": 5618,
  "\u2581opreau": 5619,
  "\u2581lighenele": 5620,
  "\u2581camilelor": 5621,
  "\u2581crezusera": 5622,
  "\u2581proroceasca": 5623,
  "\u2581logofatului": 5624,
  "\u2581propovaduieste": 5625,
  "\u2581Felix": 5626,
  "\u2581Haldeii": 5627,
  "\u2581Egiptenii": 5628,
  "\u2581prazii": 5629,
  "\u2581Porunca": 5630,
  "\u2581Facut": 5631,
  "\u2581prorocia": 5632,
  "\u2581saruta": 5633,
  "\u2581dispretuieste": 5634,
  "\u2581inaltimilor": 5635,
  "\u2581temator": 5636,
  "\u2581invoire": 5637,
  "\u2581judecatorilor": 5638,
  "\u2581credincioasa": 5639,
  "\u2581Sarei": 5640,
  "\u2581zecelea": 5641,
  "\u2581auzisera": 5642,
  "\u2581fetelor": 5643,
  "\u2581candela": 5644,
  "\u2581ticalosia": 5645,
  "\u2581spinarea": 5646,
  "\u2581Hebronului": 5647,
  "\u2581credinciosilor": 5648,
  "\u2581scorpioni": 5649,
  "\u2581cuvenite": 5650,
  "\u2581goi": 5651,
  "\u2581lovitura": 5652,
  "\u2581carmuitorii": 5653,
  "\u2581Hefer": 5654,
  "\u2581sparge": 5655,
  "\u2581vamesii": 5656,
  "\u2581fapt": 5657,
  "\u2581camila": 5658,
  "\u2581slujitorului": 5659,
  "\u2581adevaratul": 5660,
  "\u2581stranse": 5661,
  "\u2581Itai": 5662,
  "\u2581neascultatori": 5663,
  "\u2581Trez": 5664,
  "\u2581rapire": 5665,
  "\u2581viclenie": 5666,
  "\u2581stramt": 5667,
  "\u2581coborati": 5668,
  "\u2581imbratisat": 5669,
  "\u2581slabiciune": 5670,
  "\u2581tanara": 5671,
  "\u2581intrebuintez": 5672,
  "\u2581fantanii": 5673,
  "\u2581tremure": 5674,
  "\u2581pusesera": 5675,
  "\u2581rasul": 5676,
  "\u2581lastari": 5677,
  "\u2581aprinda": 5678,
  "\u2581prindeti": 5679,
  "\u2581rasari": 5680,
  "\u2581culoare": 5681,
  "\u2581iesle": 5682,
  "\u2581daruit": 5683,
  "\u2581vierme": 5684,
  "\u2581primim": 5685,
  "\u2581cucerit": 5686,
  "\u2581fugea": 5687,
  "\u2581iesise": 5688,
  "\u2581Uri": 5689,
  "\u2581pelin": 5690,
  "\u2581vrednica": 5691,
  "\u2581pranz": 5692,
  "\u2581ierti": 5693,
  "\u2581Departe": 5694,
  "dan": 5695,
  "\u2581Sur": 5696,
  "\u2581bisericii": 5697,
  "\u2581stinga": 5698,
  "\u2581ingenuncheat": 5699,
  "\u2581Intareste": 5700,
  "\u2581pierim": 5701,
  "Saul": 5702,
  "\u2581plecam": 5703,
  "\u2581fugiti": 5704,
  "\u2581mersul": 5705,
  "\u2581iebusitii": 5706,
  "\u2581intampinare": 5707,
  "\u2581batea": 5708,
  "\u2581saptamanii": 5709,
  "\u2581zapis": 5710,
  "ezi": 5711,
  "\u2581ajuti": 5712,
  "\u2581Toa": 5713,
  "\u2581blestemati": 5714,
  "\u2581caini": 5715,
  "\u2581urmare": 5716,
  "\u2581pierzarea": 5717,
  "\u2581sunete": 5718,
  "\u2581ganditi": 5719,
  "oboara": 5720,
  "\u2581traga": 5721,
  "\u2581gemi": 5722,
  "\u2581asteptati": 5723,
  "\u2581tauri": 5724,
  "\u2581sfasiate": 5725,
  "\u2581Imparati": 5726,
  "\u2581obositi": 5727,
  "care": 5728,
  "\u2581inconjura": 5729,
  "\u2581ra": 5730,
  "\u2581raspundeti": 5731,
  "\u2581Hele": 5732,
  "\u2581Dibon": 5733,
  "\u2581impotriv": 5734,
  "\u2581folosi": 5735,
  "\u2581fluiera": 5736,
  "\u2581porn": 5737,
  "\u2581Hod": 5738,
  "\u2581turmei": 5739,
  "\u2581ascunda": 5740,
  "\u2581Nebunul": 5741,
  "\u2581mirati": 5742,
  "\u2581parerea": 5743,
  "\u2581Acest": 5744,
  "\u2581ispititi": 5745,
  "\u2581apasati": 5746,
  "\u2581Fri": 5747,
  "\u2581aratati": 5748,
  "\u2581croit": 5749,
  "\u2581stramutat": 5750,
  "\u2581afl": 5751,
  "\u2581Case": 5752,
  "oase": 5753,
  "\u2581dezlegati": 5754,
  "\u2581sapate": 5755,
  "\u2581iscodit": 5756,
  "\u2581trimiteti": 5757,
  "\u2581gatit": 5758,
  "\u2581intrebi": 5759,
  "\u2581praznuiti": 5760,
  "\u2581prefaca": 5761,
  "\u2581inecat": 5762,
  "\u2581caine": 5763,
  "\u2581Cusi": 5764,
  "\u2581scaldat": 5765,
  "\u2581ajutati": 5766,
  "betele": 5767,
  "\u2581viitorul": 5768,
  "\u2581vindecati": 5769,
  "\u2581lasam": 5770,
  "ert": 5771,
  "\u2581dezleg": 5772,
  "\u2581porunc": 5773,
  "\u2581Iaezer": 5774,
  "\u2581dand": 5775,
  "\u2581multora": 5776,
  "raiasca": 5777,
  "har": 5778,
  "\u2581sul": 5779,
  "\u2581urmati": 5780,
  "\u2581nas": 5781,
  "\u2581mutat": 5782,
  "ze": 5783,
  "\u2581treiera": 5784,
  "\u2581colibe": 5785,
  "\u2581Oric": 5786,
  "\u2581beniamiti": 5787,
  "\u2581numarati": 5788,
  "Ba": 5789,
  "\u2581potrivnic": 5790,
  "\u2581Impotriv": 5791,
  "torii": 5792,
  "\u2581chezas": 5793,
  "ase": 5794,
  "\u2581savarsest": 5795,
  "\u2581timpane": 5796,
  "\u2581sfarsea": 5797,
  "\u2581nadejdi": 5798,
  "fat": 5799,
  "\u2581jumatati": 5800,
  "\u2581pleci": 5801,
  "\u2581maniind": 5802,
  "\u2581amesteca": 5803,
  "\u2581minciunii": 5804,
  "\u2581muti": 5805,
  "\u2581instiinta": 5806,
  "\u2581h": 5807,
  "\u2581inchipui": 5808,
  "\u2581suisul": 5809,
  "\u2581muncit": 5810,
  "\u2581infricosata": 5811,
  "\u2581Vorbi": 5812,
  "\u2581sfesnice": 5813,
  "\u2581maluri": 5814,
  "\u2581Ahi": 5815,
  "\u2581Lucr": 5816,
  "\u2581navali": 5817,
  "\u2581marite": 5818,
  "\u2581omorase": 5819,
  "\u2581polei": 5820,
  "\u2581amare": 5821,
  "\u2581plesuv": 5822,
  "\u2581legate": 5823,
  "\u2581razboinic": 5824,
  "\u2581teascul": 5825,
  "\u2581pricin": 5826,
  "chi": 5827,
  "\u2581socotita": 5828,
  "\u2581urmariti": 5829,
  "\u2581umarul": 5830,
  "\u2581sed": 5831,
  "\u2581necuratiil": 5832,
  "\u2581cules": 5833,
  "\u2581aleg": 5834,
  "Baga": 5835,
  "\u2581mandru": 5836,
  "ie": 5837,
  "\u2581Haidem": 5838,
  "\u2581largi": 5839,
  "\u2581Bar": 5840,
  "\u2581orfan": 5841,
  "\u2581So": 5842,
  "\u2581udat": 5843,
  "Melec": 5844,
  "\u2581Re": 5845,
  "\u2581nesocotiti": 5846,
  "\u2581grozav": 5847,
  "\u2581argintar": 5848,
  "\u2581soi": 5849,
  "\u2581indemnuri": 5850,
  "tii": 5851,
  "\u2581juca": 5852,
  "\u2581Iese": 5853,
  "\u2581doare": 5854,
  "\u2581adanci": 5855,
  "\u2581hotul": 5856,
  "Nici": 5857,
  "Duhul": 5858,
  "\u2581dorea": 5859,
  "Uite": 5860,
  "ania": 5861,
  "\u2581scosese": 5862,
  "\u2581lipsi": 5863,
  "Barbati": 5864,
  "\u2581rasturna": 5865,
  "\u2581ros": 5866,
  "\u2581necunoscut": 5867,
  "Acestia": 5868,
  "jos": 5869,
  "cand": 5870,
  "\u2581ingrozi": 5871,
  "Poate": 5872,
  "\u2581dorm": 5873,
  "Pregatiti": 5874,
  "\u2581colo": 5875,
  "Stiti": 5876,
  "\u2581lepadati": 5877,
  "Strangeti": 5878,
  "cam": 5879,
  "\u2581carei": 5880,
  "ajunga": 5881,
  "\u2581nepartinire": 5882,
  "\u2581Talmon": 5883,
  "\u2581ocarat": 5884,
  "uiesc": 5885,
  "\u2581poruncea": 5886,
  "\u2581crestet": 5887,
  "\u2581Feric": 5888,
  "\u2581Adoni": 5889,
  "\u2581sterg": 5890,
  "\u2581sutas": 5891,
  "\u2581Soco": 5892,
  "\u2581Tob": 5893,
  "\u2581mal": 5894,
  "\u2581faradelegi": 5895,
  "\u2581bogatul": 5896,
  "\u2581aruncand": 5897,
  "\u2581evlavie": 5898,
  "\u2581Put": 5899,
  "\u2581retele": 5900,
  "\u2581buz": 5901,
  "\u2581izgoniti": 5902,
  "\u2581evrei": 5903,
  "\u2581imbogatit": 5904,
  "tors": 5905,
  "\u2581edomit": 5906,
  "\u2581proslavi": 5907,
  "\u2581crini": 5908,
  "\u2581incheia": 5909,
  "\u2581rabdator": 5910,
  "\u2581traia": 5911,
  "\u2581tabere": 5912,
  "\u2581maret": 5913,
  "\u2581fund": 5914,
  "\u2581prunci": 5915,
  "\u2581incing": 5916,
  "rderea": 5917,
  "g": 5918,
  "\u2581gras": 5919,
  "\u2581ciocan": 5920,
  "\u2581ating": 5921,
  "Fiica": 5922,
  "\u2581Robi": 5923,
  "\u2581fariseu": 5924,
  "\u2581pastrez": 5925,
  "\u2581lacomie": 5926,
  "\u2581Fapt": 5927,
  "oarece": 5928,
  "usesera": 5929,
  "\u2581vesminte": 5930,
  "\u2581Adanc": 5931,
  "\u2581vesteji": 5932,
  "\u2581spuse": 5933,
  "\u2581obraz": 5934,
  "\u2581isop": 5935,
  "\u2581nevoil": 5936,
  "\u2581comori": 5937,
  "\u2581Facatorul": 5938,
  "\u2581flori": 5939,
  "\u2581vanzatorul": 5940,
  "\u2581Eden": 5941,
  "\u2581Cadmiel": 5942,
  "\u2581Cipru": 5943,
  "\u2581Corneliu": 5944,
  "\u2581Elisabeta": 5945,
  "\u2581Ghilboa": 5946,
  "\u2581Ierahmeel": 5947,
  "\u2581Menahem": 5948,
  "\u2581Serebia": 5949,
  "\u2581Tahpanes": 5950,
  "\u2581Tibeon": 5951,
  "\u2581Zabad": 5952,
  "\u2581crisolit": 5953,
  "\u2581duhovniceasca": 5954,
  "\u2581duhovnicesc": 5955,
  "\u2581neadevaruri": 5956,
  "\u2581pavaza": 5957,
  "\u2581Chebar": 5958,
  "\u2581Edrei": 5959,
  "\u2581Pisga": 5960,
  "\u2581arzatoare": 5961,
  "\u2581platose": 5962,
  "\u2581Dregatorul": 5963,
  "\u2581Noaptea": 5964,
  "\u2581Rahav": 5965,
  "\u2581Bicri": 5966,
  "\u2581Noroadele": 5967,
  "\u2581pardoseala": 5968,
  "\u2581maiestrie": 5969,
  "\u2581sunamita": 5970,
  "\u2581Ebal": 5971,
  "\u2581Misael": 5972,
  "\u2581Iachin": 5973,
  "\u2581Matitia": 5974,
  "\u2581scumpatate": 5975,
  "\u2581trufia": 5976,
  "\u2581potoleasca": 5977,
  "\u2581Suah": 5978,
  "\u2581sfoara": 5979,
  "\u2581batjocoreste": 5980,
  "\u2581mugesc": 5981,
  "\u2581despagubire": 5982,
  "\u2581Chemos": 5983,
  "\u2581zgura": 5984,
  "\u2581mirositor": 5985,
  "\u2581curgatoare": 5986,
  "\u2581Abdon": 5987,
  "\u2581Chitim": 5988,
  "\u2581manios": 5989,
  "\u2581Pedaia": 5990,
  "\u2581obste": 5991,
  "\u2581negru": 5992,
  "\u2581Rehum": 5993,
  "\u2581izgoneasca": 5994,
  "\u2581roditoare": 5995,
  "\u2581Onan": 5996,
  "Femeie": 5997,
  "\u2581Ofra": 5998,
  "\u2581postesc": 5999,
  "\u2581pustiesc": 6000,
  "\u2581traista": 6001,
  "\u2581Elifelet": 6002,
  "\u2581pustiasca": 6003,
  "\u2581verzi": 6004,
  "\u2581Chedarului": 6005,
  "\u2581jefuiasca": 6006,
  "\u2581prapadesc": 6007,
  "\u2581Enos": 6008,
  "\u2581Luz": 6009,
  "\u2581invalmaseala": 6010,
  "\u2581balaurul": 6011,
  "\u2581vistieriilor": 6012,
  "\u2581parinteasca": 6013,
  "\u2581priceperii": 6014,
  "\u2581pruncul": 6015,
  "\u2581Astarteile": 6016,
  "\u2581iubeasca": 6017,
  "\u2581Inceputul": 6018,
  "\u2581Marcu": 6019,
  "\u2581jeleste": 6020,
  "\u2581rubenitilor": 6021,
  "\u2581inchisoare": 6022,
  "\u2581dedesubt": 6023,
  "\u2581Femeile": 6024,
  "\u2581recunoaste": 6025,
  "\u2581buba": 6026,
  "\u2581mirelui": 6027,
  "\u2581Hatorului": 6028,
  "\u2581pandeste": 6029,
  "\u2581intunecat": 6030,
  "\u2581olarului": 6031,
  "\u2581Carmi": 6032,
  "\u2581baltati": 6033,
  "\u2581mostenitorul": 6034,
  "\u2581fugar": 6035,
  "\u2581punga": 6036,
  "\u2581ferezitilor": 6037,
  "\u2581furtunii": 6038,
  "\u2581gemeni": 6039,
  "\u2581roaga": 6040,
  "\u2581domnitorilor": 6041,
  "\u2581coapselor": 6042,
  "\u2581diminetii": 6043,
  "\u2581neintelegerile": 6044,
  "\u2581carare": 6045,
  "\u2581inmarmuriti": 6046,
  "\u2581gazdui": 6047,
  "\u2581patria": 6048,
  "\u2581zdrobeste": 6049,
  "\u2581stralucitor": 6050,
  "\u2581poftesti": 6051,
  "\u2581Elamului": 6052,
  "\u2581burdufurile": 6053,
  "\u2581Ut": 6054,
  "\u2581incercari": 6055,
  "\u2581timpuri": 6056,
  "\u2581Maon": 6057,
  "Suit": 6058,
  "\u2581ulitelor": 6059,
  "\u2581tainele": 6060,
  "\u2581hraneste": 6061,
  "\u2581dumnezeiasca": 6062,
  "\u2581turnurile": 6063,
  "\u2581pomilor": 6064,
  "\u2581coapte": 6065,
  "\u2581Maresa": 6066,
  "\u2581miresmele": 6067,
  "\u2581vremurilor": 6068,
  "\u2581fetit": 6069,
  "\u2581Odaile": 6070,
  "\u2581Azmavet": 6071,
  "\u2581Sfarsitul": 6072,
  "\u2581pietele": 6073,
  "\u2581proroceau": 6074,
  "\u2581amonitilor": 6075,
  "\u2581Apostolii": 6076,
  "\u2581cunostintei": 6077,
  "\u2581carmuieste": 6078,
  "\u2581falca": 6079,
  "\u2581trupeasca": 6080,
  "\u2581Aceia": 6081,
  "\u2581potirase": 6082,
  "\u2581pravalit": 6083,
  "\u2581rug": 6084,
  "\u2581dobitocului": 6085,
  "\u2581slugile": 6086,
  "\u2581tarina": 6087,
  "\u2581auzeau": 6088,
  "\u2581potirele": 6089,
  "\u2581adusese": 6090,
  "\u2581sfinteste": 6091,
  "\u2581Urma": 6092,
  "\u2581solul": 6093,
  "\u2581calarime": 6094,
  "\u2581certurile": 6095,
  "\u2581adancului": 6096,
  "\u2581plecase": 6097,
  "\u2581camasa": 6098,
  "\u2581scazut": 6099,
  "\u2581leoaica": 6100,
  "\u2581nevestelor": 6101,
  "\u2581Hator": 6102,
  "\u2581slujnica": 6103,
  "\u2581vistieriei": 6104,
  "\u2581Basanul": 6105,
  "\u2581spurcaciune": 6106,
  "\u2581orbilor": 6107,
  "\u2581impletite": 6108,
  "\u2581domnilor": 6109,
  "\u2581calauzi": 6110,
  "\u2581band": 6111,
  "\u2581nevoi": 6112,
  "\u2581neintelegeri": 6113,
  "\u2581nutret": 6114,
  "\u2581incapatanat": 6115,
  "\u2581culme": 6116,
  "\u2581Beltsatar": 6117,
  "\u2581frunza": 6118,
  "\u2581slugii": 6119,
  "\u2581mustre": 6120,
  "\u2581indreptate": 6121,
  "\u2581Toar": 6122,
  "\u2581grozave": 6123,
  "\u2581dospita": 6124,
  "\u2581mahnire": 6125,
  "\u2581clocot": 6126,
  "\u2581fagaduintei": 6127,
  "\u2581infipt": 6128,
  "\u2581Elon": 6129,
  "\u2581insura": 6130,
  "\u2581parc": 6131,
  "\u2581Tola": 6132,
  "\u2581stapanilor": 6133,
  "lba": 6134,
  "\u2581tinerilor": 6135,
  "\u2581vreunei": 6136,
  "\u2581domnea": 6137,
  "\u2581To": 6138,
  "\u2581ghicitorii": 6139,
  "\u2581sfarsitului": 6140,
  "\u2581inghita": 6141,
  "sirianul": 6142,
  "\u2581dormea": 6143,
  "sunt": 6144,
  "\u2581sutasi": 6145,
  "\u2581caramizie": 6146,
  "\u2581Sinear": 6147,
  "\u2581dezbinari": 6148,
  "\u2581cutreiera": 6149,
  "\u2581cumnat": 6150,
  "\u2581cosul": 6151,
  "\u2581ingaduie": 6152,
  "\u2581lucrezi": 6153,
  "ima": 6154,
  "\u2581aleaga": 6155,
  "\u2581propasire": 6156,
  "\u2581Ziditorul": 6157,
  "\u2581slove": 6158,
  "\u2581veacul": 6159,
  "\u2581strambe": 6160,
  "trarea": 6161,
  "\u2581amarat": 6162,
  "\u2581inselator": 6163,
  "\u2581culc": 6164,
  "\u2581Degeaba": 6165,
  "\u2581mintii": 6166,
  "emia": 6167,
  "\u2581Etam": 6168,
  "\u2581gropii": 6169,
  "\u2581Asaia": 6170,
  "\u2581adune": 6171,
  "\u2581geloziei": 6172,
  "\u2581pazitor": 6173,
  "\u2581stejar": 6174,
  "lipeasca": 6175,
  "\u2581rup": 6176,
  "\u2581simta": 6177,
  "\u2581vest": 6178,
  "\u2581hraniti": 6179,
  "deti": 6180,
  "\u2581imbarbatati": 6181,
  "\u2581Lud": 6182,
  "\u2581greutati": 6183,
  "\u2581alesese": 6184,
  "\u2581cereril": 6185,
  "\u2581chinuiti": 6186,
  "\u2581cunoscuta": 6187,
  "\u2581trimitem": 6188,
  "\u2581camara": 6189,
  "\u2581plangeau": 6190,
  "\u2581bratari": 6191,
  "\u2581povestit": 6192,
  "\u2581Pregatiti": 6193,
  "\u2581lacomia": 6194,
  "\u2581rugau": 6195,
  "\u2581tarilor": 6196,
  "Omule": 6197,
  "\u2581napustes": 6198,
  "\u2581facusem": 6199,
  "\u2581amar": 6200,
  "\u2581raz": 6201,
  "\u2581targuril": 6202,
  "\u2581amaraciunea": 6203,
  "\u2581argintului": 6204,
  "\u2581robia": 6205,
  "\u2581porci": 6206,
  "\u2581viermi": 6207,
  "\u2581luptam": 6208,
  "\u2581punand": 6209,
  "oi": 6210,
  "\u2581daramate": 6211,
  "\u2581Lasati": 6212,
  "\u2581pironit": 6213,
  "\u2581Imparatului": 6214,
  "\u2581incredinta": 6215,
  "\u2581asemanare": 6216,
  "\u2581apararea": 6217,
  "\u2581jucat": 6218,
  "\u2581batjocoritori": 6219,
  "\u2581ingamfata": 6220,
  "\u2581cori": 6221,
  "\u2581fali": 6222,
  "Intra": 6223,
  "\u2581caderea": 6224,
  "\u2581departate": 6225,
  "\u2581lovea": 6226,
  "\u2581sfatuiti": 6227,
  "\u2581plangi": 6228,
  "\u2581voieste": 6229,
  "\u2581unghiuri": 6230,
  "\u2581imprumuta": 6231,
  "\u2581apei": 6232,
  "\u2581cititori": 6233,
  "\u2581dispretuiti": 6234,
  "\u2581Munti": 6235,
  "\u2581pa": 6236,
  "\u2581corbul": 6237,
  "\u2581abat": 6238,
  "\u2581cor": 6239,
  "\u2581Cineva": 6240,
  "\u2581ratacita": 6241,
  "\u2581secerat": 6242,
  "\u2581Hati": 6243,
  "\u2581roman": 6244,
  "\u2581scalda": 6245,
  "ine": 6246,
  "unde": 6247,
  "\u2581Bil": 6248,
  "\u2581bocet": 6249,
  "\u2581iubire": 6250,
  "\u2581invatau": 6251,
  "\u2581cheltui": 6252,
  "\u2581Vi": 6253,
  "\u2581inmultiti": 6254,
  "\u2581umbletel": 6255,
  "\u2581mint": 6256,
  "\u2581chiparosi": 6257,
  "\u2581patim": 6258,
  "\u2581intrebuint": 6259,
  "Robi": 6260,
  "lea": 6261,
  "\u2581stramuta": 6262,
  "\u2581neprihanita": 6263,
  "\u2581sfintite": 6264,
  "\u2581Binecuvantati": 6265,
  "\u2581inchise": 6266,
  "\u2581maruntaie": 6267,
  "\u2581carmaz": 6268,
  "\u2581invatatorul": 6269,
  "\u2581apostolii": 6270,
  "\u2581dezlega": 6271,
  "\u2581asteptare": 6272,
  "\u2581san": 6273,
  "\u2581saturati": 6274,
  "\u2581iubitor": 6275,
  "\u2581punea": 6276,
  "\u2581poame": 6277,
  "nitilor": 6278,
  "\u2581prigoni": 6279,
  "\u2581insoti": 6280,
  "\u2581Iaso": 6281,
  "\u2581despartita": 6282,
  "\u2581inchinatori": 6283,
  "Gad": 6284,
  "\u2581raspundea": 6285,
  "\u2581blestemi": 6286,
  "\u2581dezlipi": 6287,
  "\u2581Iacove": 6288,
  "\u2581lini": 6289,
  "\u2581inconjurati": 6290,
  "\u2581posti": 6291,
  "\u2581manz": 6292,
  "\u2581marit": 6293,
  "\u2581Scula": 6294,
  "\u2581Est": 6295,
  "\u2581inchisi": 6296,
  "\u2581Ni": 6297,
  "\u2581lada": 6298,
  "\u2581sloboda": 6299,
  "untem": 6300,
  "\u2581Porti": 6301,
  "\u2581verig": 6302,
  "\u2581vorbiri": 6303,
  "\u2581Masa": 6304,
  "\u2581Boc": 6305,
  "arba": 6306,
  "\u2581masline": 6307,
  "tava": 6308,
  "\u2581Blestemat": 6309,
  "\u2581tal": 6310,
  "\u2581nelegiuita": 6311,
  "\u2581scarbi": 6312,
  "\u2581pumn": 6313,
  "\u2581impinge": 6314,
  "Israel": 6315,
  "\u2581ziceai": 6316,
  "\u2581Cher": 6317,
  "umnezeului": 6318,
  "\u2581adun": 6319,
  "\u2581crapa": 6320,
  "\u2581prigonitori": 6321,
  "fi": 6322,
  "\u2581ramasi": 6323,
  "ina": 6324,
  "eu": 6325,
  "\u2581legen": 6326,
  "\u2581apropiati": 6327,
  "\u2581mangai": 6328,
  "cine": 6329,
  "\u2581netaiata": 6330,
  "\u2581holde": 6331,
  "\u2581deda": 6332,
  "\u2581semeti": 6333,
  "\u2581Cana": 6334,
  "\u2581pazea": 6335,
  "\u2581capitani": 6336,
  "\u2581facere": 6337,
  "\u2581prorocita": 6338,
  "pede": 6339,
  "nim": 6340,
  "Apropi": 6341,
  "\u2581trezi": 6342,
  "\u2581preacurvar": 6343,
  "\u2581fiert": 6344,
  "be": 6345,
  "\u2581vindec": 6346,
  "inutul": 6347,
  "\u2581pu": 6348,
  "turi": 6349,
  "\u2581prinos": 6350,
  "\u2581uitand": 6351,
  "\u2581intorcand": 6352,
  "Scrie": 6353,
  "\u2581belsugul": 6354,
  "\u2581paharnic": 6355,
  "che": 6356,
  "\u2581foametei": 6357,
  "\u2581pregatea": 6358,
  "\u2581Mantuitor": 6359,
  "v": 6360,
  "Ioan": 6361,
  "\u2581ascult": 6362,
  "ajunge": 6363,
  "\u2581incuiat": 6364,
  "\u2581prabusi": 6365,
  "\u2581atotputernic": 6366,
  "\u2581curvi": 6367,
  "Locul": 6368,
  "\u2581cetatui": 6369,
  "p": 6370,
  "Moab": 6371,
  "\u2581placeri": 6372,
  "Hanan": 6373,
  "\u2581impartita": 6374,
  "lipeste": 6375,
  "\u2581strajer": 6376,
  "\u2581inchisa": 6377,
  "\u2581Mesec": 6378,
  "\u2581frang": 6379,
  "Fiti": 6380,
  "\u2581copi": 6381,
  "\u2581carmuitor": 6382,
  "\u2581indaratnic": 6383,
  "\u2581inlocuiasca": 6384,
  "Are": 6385,
  "gului": 6386,
  "\u2581simte": 6387,
  "\u2581lucrez": 6388,
  "\u2581pricinui": 6389,
  "\u2581amenintare": 6390,
  "crezut": 6391,
  "Al": 6392,
  "deau": 6393,
  "\u2581odrasl": 6394,
  "Stai": 6395,
  "\u2581Dumneze": 6396,
  "du": 6397,
  "\u2581sulite": 6398,
  "\u2581povatuit": 6399,
  "\u2581ostas": 6400,
  "\u2581moabiti": 6401,
  "\u2581dragostei": 6402,
  "\u2581unora": 6403,
  "\u2581funi": 6404,
  "\u2581po": 6405,
  "\u2581usuc": 6406,
  "\u2581varsati": 6407,
  "tan": 6408,
  "\u2581jalea": 6409,
  "lat": 6410,
  "\u2581indur": 6411,
  "gurile": 6412,
  "spita": 6413,
  "\u2581sare": 6414,
  "\u2581pomeni": 6415,
  "\u2581Milca": 6416,
  "\u2581intinat": 6417,
  "\u2581Tirul": 6418,
  "\u2581Aialon": 6419,
  "\u2581aratata": 6420,
  "\u2581valuri": 6421,
  "\u2581pridvor": 6422,
  "\u2581filistean": 6423,
  "voi": 6424,
  "\u2581odrasle": 6425,
  "mai": 6426,
  "\u2581Bilha": 6427,
  "\u2581Zabdi": 6428,
  "\u2581razbunatorul": 6429,
  "\u2581alipi": 6430,
  "\u2581pustiitorul": 6431,
  "\u2581spart": 6432,
  "\u2581Ahinoam": 6433,
  "\u2581Astarot": 6434,
  "\u2581Basmat": 6435,
  "\u2581Beelzebul": 6436,
  "\u2581Belsatar": 6437,
  "\u2581Eclesiastul": 6438,
  "\u2581Estaol": 6439,
  "\u2581Ghersom": 6440,
  "\u2581Iahaziel": 6441,
  "\u2581Iconia": 6442,
  "\u2581Ierimot": 6443,
  "\u2581Jertf": 6444,
  "\u2581Mahalaleel": 6445,
  "\u2581Moloh": 6446,
  "\u2581corvoada": 6447,
  "\u2581improscat": 6448,
  "\u2581jasp": 6449,
  "\u2581mladita": 6450,
  "\u2581sanatoase": 6451,
  "\u2581Elnatan": 6452,
  "\u2581Havila": 6453,
  "\u2581Oreb": 6454,
  "\u2581Sefarvaim": 6455,
  "\u2581blid": 6456,
  "\u2581ipsos": 6457,
  "\u2581iveala": 6458,
  "\u2581pedestri": 6459,
  "\u2581Acbor": 6460,
  "\u2581Agag": 6461,
  "\u2581Meraiot": 6462,
  "\u2581Heber": 6463,
  "\u2581smerenie": 6464,
  "\u2581Buchi": 6465,
  "\u2581Corint": 6466,
  "\u2581batjocoresc": 6467,
  "\u2581cireada": 6468,
  "\u2581Arioc": 6469,
  "Hogla": 6470,
  "\u2581naparca": 6471,
  "\u2581muchii": 6472,
  "\u2581Groaza": 6473,
  "\u2581Hosea": 6474,
  "\u2581Sioane": 6475,
  "\u2581indemana": 6476,
  "\u2581Dison": 6477,
  "\u2581Botra": 6478,
  "\u2581Tipor": 6479,
  "\u2581Ghedor": 6480,
  "\u2581surd": 6481,
  "\u2581Binui": 6482,
  "\u2581stafide": 6483,
  "\u2581zaboveste": 6484,
  "\u2581cuiburi": 6485,
  "\u2581Iaboc": 6486,
  "\u2581Pont": 6487,
  "\u2581Tesalonic": 6488,
  "\u2581osteneli": 6489,
  "\u2581Etiopiei": 6490,
  "\u2581Laedan": 6491,
  "\u2581Penuel": 6492,
  "\u2581pierzarii": 6493,
  "\u2581Sebania": 6494,
  "\u2581intunecos": 6495,
  "\u2581odihnesc": 6496,
  "\u2581stiintei": 6497,
  "\u2581Sisac": 6498,
  "\u2581Delaia": 6499,
  "\u2581inceteaza": 6500,
  "\u2581amageasca": 6501,
  "\u2581rataceasca": 6502,
  "\u2581imbogateste": 6503,
  "\u2581omoruri": 6504,
  "\u2581evreiasca": 6505,
  "\u2581Eter": 6506,
  "\u2581pieptar": 6507,
  "\u2581Peleg": 6508,
  "\u2581necontenit": 6509,
  "Horonul": 6510,
  "\u2581scaldatoare": 6511,
  "\u2581zeciuielile": 6512,
  "\u2581pacatuiesti": 6513,
  "\u2581Ahaia": 6514,
  "\u2581bantui": 6515,
  "\u2581indurator": 6516,
  "\u2581slaveasca": 6517,
  "Oamenilor": 6518,
  "\u2581Iavan": 6519,
  "\u2581grabeste": 6520,
  "\u2581ocroteste": 6521,
  "\u2581rapeste": 6522,
  "\u2581Ariel": 6523,
  "\u2581lumesti": 6524,
  "\u2581arcurile": 6525,
  "\u2581evreieste": 6526,
  "\u2581Lotan": 6527,
  "\u2581staruinta": 6528,
  "\u2581Adancul": 6529,
  "\u2581Hosa": 6530,
  "\u2581moabita": 6531,
  "\u2581postav": 6532,
  "\u2581magarusul": 6533,
  "\u2581orfanul": 6534,
  "\u2581Viata": 6535,
  "\u2581numaidecat": 6536,
  "\u2581rataci": 6537,
  "\u2581gazduit": 6538,
  "\u2581nestiinta": 6539,
  "\u2581tinuturilor": 6540,
  "\u2581increzi": 6541,
  "\u2581luminat": 6542,
  "\u2581ungerii": 6543,
  "\u2581frigurile": 6544,
  "\u2581izbucneste": 6545,
  "\u2581izbit": 6546,
  "\u2581Adancului": 6547,
  "Rama": 6548,
  "\u2581sarutare": 6549,
  "\u2581cincime": 6550,
  "\u2581pieptarului": 6551,
  "\u2581dumnezeiesti": 6552,
  "\u2581firesc": 6553,
  "\u2581asupritorului": 6554,
  "\u2581vegheze": 6555,
  "\u2581vaduvelor": 6556,
  "\u2581soborului": 6557,
  "\u2581Dintai": 6558,
  "\u2581inveleste": 6559,
  "\u2581nadajduieste": 6560,
  "\u2581mladite": 6561,
  "\u2581gustat": 6562,
  "\u2581Slujiti": 6563,
  "\u2581incheietura": 6564,
  "\u2581galagioasa": 6565,
  "\u2581impunge": 6566,
  "\u2581Urim": 6567,
  "\u2581rugaminte": 6568,
  "\u2581preacurve": 6569,
  "\u2581pestilor": 6570,
  "\u2581slobozenie": 6571,
  "\u2581flamanzit": 6572,
  "\u2581asupresc": 6573,
  "\u2581spicelor": 6574,
  "\u2581Atel": 6575,
  "\u2581spate": 6576,
  "\u2581veacurile": 6577,
  "Dumnezeule": 6578,
  "\u2581putrezi": 6579,
  "\u2581pecingine": 6580,
  "\u2581inviase": 6581,
  "\u2581Gabaonului": 6582,
  "\u2581dispretul": 6583,
  "\u2581trufase": 6584,
  "\u2581Sirienii": 6585,
  "\u2581Altarul": 6586,
  "\u2581balaur": 6587,
  "\u2581numeri": 6588,
  "\u2581panze": 6589,
  "\u2581purpuri": 6590,
  "\u2581impletitur": 6591,
  "\u2581Multimea": 6592,
  "\u2581musca": 6593,
  "\u2581soro": 6594,
  "\u2581asupritorul": 6595,
  "\u2581Fugiti": 6596,
  "hna": 6597,
  "\u2581Ierihonul": 6598,
  "asele": 6599,
  "\u2581pustiirii": 6600,
  "\u2581pornea": 6601,
  "\u2581tigaie": 6602,
  "\u2581Etio": 6603,
  "\u2581strigand": 6604,
  "\u2581cladirii": 6605,
  "\u2581dobitoacelor": 6606,
  "\u2581nimicitoare": 6607,
  "\u2581miselie": 6608,
  "\u2581prietenilor": 6609,
  "\u2581douazecilea": 6610,
  "\u2581stancile": 6611,
  "\u2581intariturile": 6612,
  "\u2581Efrata": 6613,
  "\u2581treptele": 6614,
  "\u2581insela": 6615,
  "\u2581tapilor": 6616,
  "\u2581heruvimilor": 6617,
  "\u2581Amos": 6618,
  "Glas": 6619,
  "\u2581intoarsa": 6620,
  "\u2581insarcinarea": 6621,
  "\u2581coliba": 6622,
  "\u2581trestia": 6623,
  "\u2581domnesti": 6624,
  "\u2581destoinici": 6625,
  "\u2581bratului": 6626,
  "\u2581Asur": 6627,
  "\u2581apropierea": 6628,
  "\u2581Vestiti": 6629,
  "\u2581despuiat": 6630,
  "\u2581iubito": 6631,
  "\u2581Chena": 6632,
  "\u2581certau": 6633,
  "\u2581intrecea": 6634,
  "\u2581ogorului": 6635,
  "\u2581Intariti": 6636,
  "Aceste": 6637,
  "\u2581logodita": 6638,
  "\u2581povatui": 6639,
  "\u2581supuneti": 6640,
  "\u2581Lais": 6641,
  "\u2581Deschide": 6642,
  "\u2581navala": 6643,
  "\u2581Copilasi": 6644,
  "\u2581pustie": 6645,
  "\u2581trambitele": 6646,
  "\u2581Nicio": 6647,
  "\u2581pamantesc": 6648,
  "\u2581pardos": 6649,
  "\u2581Iarta": 6650,
  "\u2581apucase": 6651,
  "\u2581numere": 6652,
  "ntecele": 6653,
  "\u2581parasca": 6654,
  "\u2581Sear": 6655,
  "\u2581Sapte": 6656,
  "Isus": 6657,
  "\u2581obisnuite": 6658,
  "\u2581rani": 6659,
  "\u2581silnicia": 6660,
  "\u2581Magarit": 6661,
  "\u2581blandetea": 6662,
  "\u2581poli": 6663,
  "\u2581incarcate": 6664,
  "\u2581securea": 6665,
  "\u2581scurtat": 6666,
  "\u2581voinici": 6667,
  "\u2581Paziti": 6668,
  "\u2581amoniti": 6669,
  "nice": 6670,
  "\u2581tencuit": 6671,
  "\u2581cioplitori": 6672,
  "\u2581invelit": 6673,
  "\u2581rusin": 6674,
  "\u2581cuprinda": 6675,
  "\u2581imbracam": 6676,
  "\u2581nelinistea": 6677,
  "\u2581Val": 6678,
  "\u2581spurcaciuni": 6679,
  "\u2581naprasnica": 6680,
  "\u2581desfatari": 6681,
  "\u2581barfe": 6682,
  "\u2581razboinicii": 6683,
  "\u2581mesei": 6684,
  "\u2581asteptau": 6685,
  "zand": 6686,
  "\u2581Efa": 6687,
  "\u2581Leii": 6688,
  "\u2581Oh": 6689,
  "\u2581porc": 6690,
  "\u2581Abida": 6691,
  "\u2581implinim": 6692,
  "\u2581ingamfare": 6693,
  "\u2581vierii": 6694,
  "\u2581cinstiti": 6695,
  "\u2581asupri": 6696,
  "\u2581necuratiei": 6697,
  "\u2581campii": 6698,
  "\u2581duhului": 6699,
  "\u2581tangui": 6700,
  "\u2581deosebite": 6701,
  "\u2581pasteau": 6702,
  "\u2581crescand": 6703,
  "oaica": 6704,
  "\u2581raia": 6705,
  "esera": 6706,
  "\u2581mirare": 6707,
  "\u2581Nebuni": 6708,
  "\u2581ucigasi": 6709,
  "\u2581rece": 6710,
  "lurile": 6711,
  "!\"...": 6712,
  "\u2581marirea": 6713,
  "\u2581sprijine": 6714,
  "\u2581incepea": 6715,
  "pi": 6716,
  "\u2581slavi": 6717,
  "\u2581curvia": 6718,
  "\u2581mijlocitor": 6719,
  "\u2581Strangeti": 6720,
  "\u2581sfantul": 6721,
  "\u2581plan": 6722,
  "\u2581imprastiati": 6723,
  "\u2581socotea": 6724,
  "\u2581pierdute": 6725,
  "ieturi": 6726,
  "\u2581indepartate": 6727,
  "\u2581misun": 6728,
  "\u2581rasplatire": 6729,
  "\u2581rupa": 6730,
  "\u2581izbavest": 6731,
  "\u2581stancii": 6732,
  "\u2581cunoscute": 6733,
  "\u2581inchipuit": 6734,
  "\u2581rataciti": 6735,
  "angele": 6736,
  "\u2581cam": 6737,
  "tu": 6738,
  "\u2581isprav": 6739,
  "\u2581impietriti": 6740,
  "\u2581fasii": 6741,
  "\u2581propovaduir": 6742,
  "\u2581slabiciuni": 6743,
  "\u2581camari": 6744,
  "\u2581seaca": 6745,
  "\u2581jelit": 6746,
  "\u2581clatin": 6747,
  "\u2581Asupr": 6748,
  "\u2581israelit": 6749,
  "\u2581coace": 6750,
  "\u2581bunul": 6751,
  "\u2581minti": 6752,
  "\u2581culege": 6753,
  "\u2581Celor": 6754,
  "\u2581praznuiest": 6755,
  "\u2581iaz": 6756,
  "\u2581calul": 6757,
  "celuia": 6758,
  "\u2581Tig": 6759,
  "\u2581rezemat": 6760,
  "con": 6761,
  "ram": 6762,
  "Trimiteti": 6763,
  "\u2581slavita": 6764,
  "\u2581stiam": 6765,
  "\u2581urmarest": 6766,
  "\u2581Prorocia": 6767,
  "\u2581lesinat": 6768,
  "\u2581ocrotitor": 6769,
  "\u2581indoita": 6770,
  "\u2581Maine": 6771,
  "\u2581maniati": 6772,
  "\u2581semanati": 6773,
  "\u2581zvon": 6774,
  "\u2581pradat": 6775,
  "\u2581despartiti": 6776,
  "\u2581umpluse": 6777,
  "ocul": 6778,
  "\u2581chinuri": 6779,
  "\u2581hranea": 6780,
  "Mare": 6781,
  "\u2581uimit": 6782,
  "\u2581preacurvari": 6783,
  "\u2581gaur": 6784,
  "\u2581oric": 6785,
  "\u2581inchinau": 6786,
  "\u2581pasi": 6787,
  "\u2581doctor": 6788,
  "\u2581rastigniti": 6789,
  "\u2581lasata": 6790,
  "ereasca": 6791,
  "tori": 6792,
  "ub": 6793,
  "\u2581Ale": 6794,
  "\u2581ban": 6795,
  "\u2581parat": 6796,
  "...\"": 6797,
  "\u2581junc": 6798,
  "\u2581vecine": 6799,
  "\u2581chemau": 6800,
  "\u2581Sema": 6801,
  "\u2581fapturil": 6802,
  "\u2581lepadare": 6803,
  "\u2581biruitori": 6804,
  "\u2581cufunda": 6805,
  "\u2581traiau": 6806,
  "\u2581fript": 6807,
  "\u2581calaretul": 6808,
  "\u2581vrajitor": 6809,
  "\u2581credea": 6810,
  "tur": 6811,
  "David": 6812,
  "\u2581jocuri": 6813,
  "\u2581mame": 6814,
  "\u2581Popoare": 6815,
  "\u2581linistea": 6816,
  "\u2581painii": 6817,
  "\u2581cursul": 6818,
  "\u2581Niciunu": 6819,
  "\u2581carmuitorul": 6820,
  "\u2581mareste": 6821,
  "\u2581fugari": 6822,
  "\u2581socot": 6823,
  "itorii": 6824,
  "\u2581incape": 6825,
  "\u2581Fratel": 6826,
  "\u2581Tel": 6827,
  "\u2581clatinat": 6828,
  "asera": 6829,
  "\u2581umplea": 6830,
  "\u2581Bine": 6831,
  "\u2581cufundat": 6832,
  "\u2581carturar": 6833,
  "ga": 6834,
  "\u2581parg": 6835,
  "espre": 6836,
  "\u2581candele": 6837,
  "\u2581anumit": 6838,
  "\u2581praznuia": 6839,
  "\u2581vai": 6840,
  "azurile": 6841,
  "\u2581spanzura": 6842,
  "uie": 6843,
  "\u2581preotie": 6844,
  "toarne": 6845,
  "apuca": 6846,
  "is": 6847,
  "sului": 6848,
  "\u2581Teme": 6849,
  "\u2581Abi": 6850,
  "\u2581vanduti": 6851,
  "\u2581rasunat": 6852,
  "Bet": 6853,
  "\u2581spunand": 6854,
  "\u2581vantura": 6855,
  "\u2581lucrului": 6856,
  "\u2581nasc": 6857,
  "\u2581prorociti": 6858,
  "\u2581man": 6859,
  "nici": 6860,
  "\u2581prapadi": 6861,
  "lanurile": 6862,
  "\u2581sarit": 6863,
  "\u2581olar": 6864,
  "ter": 6865,
  "\u2581acoperite": 6866,
  "\u2581vestest": 6867,
  "\u2581petic": 6868,
  "\u2581Sib": 6869,
  "\u2581z": 6870,
  "vi": 6871,
  "ur": 6872,
  "\u2581daramata": 6873,
  "epede": 6874,
  "enesul": 6875,
  "\u2581sap": 6876,
  "\u2581cuprindea": 6877,
  "\u2581Infatisa": 6878,
  "lelalte": 6879,
  "\u2581sadita": 6880,
  "\u2581leului": 6881,
  "\u2581sfars": 6882,
  "cul": 6883,
  "\u2581Elim": 6884,
  "tra": 6885,
  "\u2581Vrem": 6886,
  "Trai": 6887,
  "\u2581Tur": 6888,
  "dusesera": 6889,
  "\u2581Betelul": 6890,
  "\u2581lovise": 6891,
  "leaga": 6892,
  "\u2581tac": 6893,
  "iul": 6894,
  "\u2581indracit": 6895,
  "\u2581Oholiba": 6896,
  "\u2581tagadui": 6897,
  "\u2581prag": 6898,
  "\u2581cutite": 6899,
  "\u2581cerea": 6900,
  "\u2581locu": 6901,
  "\u2581ingamfa": 6902,
  "uisera": 6903,
  "\u2581pribegi": 6904,
  "\u2581Ib": 6905,
  "\u2581zgudui": 6906,
  "\u2581randui": 6907,
  "\u2581intram": 6908,
  "caunul": 6909,
  "\u2581chi": 6910,
  "\u2581gheare": 6911,
  "\u2581acel": 6912,
  "\u2581nenorocitul": 6913,
  "Loveste": 6914,
  "\u2581vijeli": 6915,
  "\u2581averi": 6916,
  "em": 6917,
  "\u2581naprasnic": 6918,
  "\u2581Martor": 6919,
  "\u2581urzes": 6920,
  "Fiecare": 6921,
  "\u2581deprins": 6922,
  "eel": 6923,
  "\u2581facator": 6924,
  "\u2581hotare": 6925,
  "Filistenii": 6926,
  "\u2581petrec": 6927,
  "nevoie": 6928,
  "mea": 6929,
  "Hinom": 6930,
  "\u2581bolnava": 6931,
  "Laudati": 6932,
  "Simone": 6933,
  "Toti": 6934,
  "\u2581impodobi": 6935,
  "\u2581Zid": 6936,
  "\u2581ascut": 6937,
  "Copii": 6938,
  "\u2581nedospit": 6939,
  "\u2581ingenunchea": 6940,
  "laturi": 6941,
  "\u2581talmacire": 6942,
  "raul": 6943,
  "\u2581curatata": 6944,
  "Parinti": 6945,
  "\u2581cavalul": 6946,
  "\u2581semenul": 6947,
  "\u2581desert": 6948,
  "Inainte": 6949,
  "arii": 6950,
  "\u2581Arunca": 6951,
  "Bucura": 6952,
  "\u2581neprihanite": 6953,
  "\u2581insetat": 6954,
  "\u2581fantani": 6955,
  "\u2581usurat": 6956,
  "Cere": 6957,
  "col": 6958,
  "\u2581rusinat": 6959,
  "\u2581Big": 6960,
  "\u2581ajungea": 6961,
  "\u2581rautati": 6962,
  "\u2581implinire": 6963,
  "\u2581Toan": 6964,
  "\u2581pescari": 6965,
  "\u2581scade": 6966,
  "socotesc": 6967,
  "\u2581plug": 6968,
  "\u2581cazan": 6969,
  "\u2581curti": 6970,
  "\u2581cuvenit": 6971,
  "\u2581Unsul": 6972,
  "\u2581parasita": 6973,
  "\u2581slujnice": 6974,
  "\u2581neimplinit": 6975,
  "Vrem": 6976,
  "\u2581incredintez": 6977,
  "\u2581plugar": 6978,
  "\u2581Hesbonul": 6979,
  "\u2581ghicitori": 6980,
  "\u2581Invatatorule": 6981,
  "enilor": 6982,
  "\u2581Trimite": 6983,
  "\u2581neliniste": 6984,
  "Uita": 6985,
  "\u2581savarsise": 6986,
  "\u2581scrii": 6987,
  "\u2581vaile": 6988,
  "\u2581cinsti": 6989,
  "\u2581Tubal": 6990,
  "ragostea": 6991,
  "\u2581spic": 6992,
  "cele": 6993,
  "\u2581frig": 6994,
  "Horon": 6995,
  "\u2581voievod": 6996,
  "\u2581Tofet": 6997,
  "\u2581friguri": 6998,
  "\u2581sobor": 6999,
  "\u2581plumb": 7000,
  "\u2581greseli": 7001,
  "avand": 7002,
  "\u2581cheretiti": 7003,
  "tor": 7004,
  "\u2581aflase": 7005,
  "\u2581repezi": 7006,
  "\u2581Abihail": 7007,
  "\u2581Alergatorii": 7008,
  "\u2581Alexandru": 7009,
  "\u2581Cilicia": 7010,
  "\u2581Ghihon": 7011,
  "\u2581Goliat": 7012,
  "\u2581Izabelei": 7013,
  "\u2581Laodiceea": 7014,
  "\u2581Mesopotamia": 7015,
  "\u2581Zeeb": 7016,
  "\u2581ciorchini": 7017,
  "\u2581crucii": 7018,
  "\u2581galileeni": 7019,
  "\u2581gatlejul": 7020,
  "\u2581gheena": 7021,
  "\u2581gheenei": 7022,
  "\u2581iebusitul": 7023,
  "\u2581incuietorile": 7024,
  "\u2581mireasma": 7025,
  "\u2581mireaso": 7026,
  "\u2581neagra": 7027,
  "\u2581nepatrunse": 7028,
  "\u2581papura": 7029,
  "\u2581primavara": 7030,
  "\u2581rascumperi": 7031,
  "\u2581smarald": 7032,
  "\u2581streasina": 7033,
  "\u2581tisbitul": 7034,
  "\u2581Iediael": 7035,
  "\u2581Pregatirii": 7036,
  "\u2581Rechem": 7037,
  "\u2581dezleaga": 7038,
  "\u2581inmormantare": 7039,
  "\u2581platosa": 7040,
  "\u2581smantana": 7041,
  "Plecaciune": 7042,
  "\u2581Ahiezer": 7043,
  "\u2581Chineret": 7044,
  "\u2581Dalila": 7045,
  "\u2581Migdol": 7046,
  "\u2581Naiot": 7047,
  "\u2581alinator": 7048,
  "\u2581deznadajduit": 7049,
  "\u2581pitarilor": 7050,
  "\u2581priveliste": 7051,
  "\u2581smerenia": 7052,
  "\u2581Gomer": 7053,
  "\u2581Haterot": 7054,
  "\u2581Listra": 7055,
  "\u2581Escol": 7056,
  "\u2581mahala": 7057,
  "\u2581marsav": 7058,
  "\u2581treji": 7059,
  "\u2581Bebai": 7060,
  "\u2581Doeg": 7061,
  "\u2581Pareos": 7062,
  "\u2581Salmon": 7063,
  "\u2581indoaie": 7064,
  "\u2581rasnita": 7065,
  "\u2581smoala": 7066,
  "\u2581Libni": 7067,
  "\u2581Acuila": 7068,
  "\u2581Idolii": 7069,
  "\u2581Elimelec": 7070,
  "\u2581laudarosi": 7071,
  "\u2581prigonesti": 7072,
  "\u2581Ioctan": 7073,
  "\u2581ciorba": 7074,
  "\u2581tanjeste": 7075,
  "\u2581osandesc": 7076,
  "\u2581ispasitoare": 7077,
  "\u2581lepezi": 7078,
  "\u2581ciob": 7079,
  "\u2581Mediei": 7080,
  "\u2581Troa": 7081,
  "\u2581Bogatul": 7082,
  "\u2581usoara": 7083,
  "\u2581verdeturi": 7084,
  "\u2581insoteasca": 7085,
  "\u2581risipesc": 7086,
  "\u2581ocroteasca": 7087,
  "\u2581citesti": 7088,
  "\u2581iutimea": 7089,
  "\u2581izgonesc": 7090,
  "\u2581Natanael": 7091,
  "\u2581Talmai": 7092,
  "\u2581neoranduiala": 7093,
  "\u2581Maluc": 7094,
  "\u2581imbolnavit": 7095,
  "\u2581tunica": 7096,
  "\u2581fusul": 7097,
  "\u2581Hasub": 7098,
  "\u2581pangareasca": 7099,
  "\u2581talcuiasca": 7100,
  "\u2581taisuri": 7101,
  "\u2581Persiei": 7102,
  "\u2581diminetile": 7103,
  "\u2581cunoscusera": 7104,
  "\u2581taciune": 7105,
  "\u2581intalnesc": 7106,
  "\u2581parasesti": 7107,
  "\u2581Nob": 7108,
  "\u2581adeverit": 7109,
  "\u2581sufar": 7110,
  "\u2581nazireatului": 7111,
  "\u2581Iared": 7112,
  "\u2581impins": 7113,
  "\u2581inadins": 7114,
  "\u2581saducheilor": 7115,
  "\u2581Tahat": 7116,
  "\u2581Cainan": 7117,
  "\u2581sacalilor": 7118,
  "\u2581netaiere": 7119,
  "\u2581Iamin": 7120,
  "\u2581Chib": 7121,
  "\u2581Simron": 7122,
  "\u2581partida": 7123,
  "\u2581sfintita": 7124,
  "\u2581cheretitilor": 7125,
  "\u2581Refaim": 7126,
  "\u2581Azeca": 7127,
  "\u2581slabanogului": 7128,
  "\u2581dulceata": 7129,
  "\u2581impotrivesc": 7130,
  "\u2581granarele": 7131,
  "\u2581instrainat": 7132,
  "\u2581Hermonului": 7133,
  "\u2581vanatul": 7134,
  "\u2581rosteasca": 7135,
  "\u2581Ieremot": 7136,
  "\u2581valurilor": 7137,
  "\u2581Debirului": 7138,
  "\u2581suspinele": 7139,
  "\u2581vesmintelor": 7140,
  "\u2581adancimea": 7141,
  "\u2581rubeniti": 7142,
  "\u2581razbunatorului": 7143,
  "\u2581Deodata": 7144,
  "\u2581Zebul": 7145,
  "Ghedi": 7146,
  "\u2581coif": 7147,
  "\u2581cazanul": 7148,
  "\u2581tunetului": 7149,
  "\u2581fruntasului": 7150,
  "\u2581doboare": 7151,
  "\u2581citeasca": 7152,
  "\u2581sperie": 7153,
  "\u2581carnii": 7154,
  "\u2581pr": 7155,
  "\u2581Mota": 7156,
  "\u2581domnitorul": 7157,
  "\u2581iedul": 7158,
  "\u2581Eufratului": 7159,
  "\u2581magarus": 7160,
  "\u2581infasurat": 7161,
  "\u2581Amiel": 7162,
  "\u2581micuti": 7163,
  "\u2581insemnatate": 7164,
  "\u2581oaselor": 7165,
  "\u2581Lachisului": 7166,
  "\u2581amonitul": 7167,
  "\u2581pridvorului": 7168,
  "\u2581Vita": 7169,
  "\u2581plecaciun": 7170,
  "\u2581plouat": 7171,
  "\u2581ciucuri": 7172,
  "\u2581sarpelui": 7173,
  "\u2581suvoi": 7174,
  "\u2581vulturii": 7175,
  "\u2581prapadeste": 7176,
  "\u2581zidarii": 7177,
  "\u2581zilnic": 7178,
  "\u2581slova": 7179,
  "\u2581postul": 7180,
  "\u2581pri": 7181,
  "\u2581asupresti": 7182,
  "\u2581inverzi": 7183,
  "\u2581Hof": 7184,
  "\u2581mahnesti": 7185,
  "\u2581toiege": 7186,
  "\u2581milostenie": 7187,
  "\u2581sutasul": 7188,
  "\u2581fireasca": 7189,
  "\u2581magaritele": 7190,
  "\u2581carturarilor": 7191,
  "\u2581ostenesc": 7192,
  "\u2581Chiriataim": 7193,
  "\u2581Sutasul": 7194,
  "\u2581sabiile": 7195,
  "\u2581rodie": 7196,
  "Meon": 7197,
  "\u2581Carmelul": 7198,
  "\u2581marfurile": 7199,
  "\u2581intorsese": 7200,
  "\u2581soareci": 7201,
  "\u2581Gatului": 7202,
  "\u2581cugetului": 7203,
  "\u2581prajite": 7204,
  "\u2581Chison": 7205,
  "\u2581miscat": 7206,
  "\u2581maacatit": 7207,
  "\u2581incetul": 7208,
  "\u2581feri": 7209,
  "\u2581insesi": 7210,
  "\u2581Oholibama": 7211,
  "\u2581Sarata": 7212,
  "\u2581incalzit": 7213,
  "\u2581Invatati": 7214,
  "\u2581urasca": 7215,
  "Im": 7216,
  "\u2581Hermon": 7217,
  "\u2581masurile": 7218,
  "\u2581saraceste": 7219,
  "\u2581largimea": 7220,
  "\u2581facatori": 7221,
  "\u2581Tabara": 7222,
  "\u2581perechi": 7223,
  "\u2581azimele": 7224,
  "\u2581platim": 7225,
  "\u2581Ahio": 7226,
  "\u2581pestriti": 7227,
  "\u2581brici": 7228,
  "curveasca": 7229,
  "\u2581laudelor": 7230,
  "\u2581culcus": 7231,
  "\u2581binecuvantezi": 7232,
  "\u2581Damascul": 7233,
  "\u2581Tanarul": 7234,
  "\u2581Primeste": 7235,
  "sai": 7236,
  "\u2581umerarii": 7237,
  "\u2581prigonire": 7238,
  "\u2581beniamit": 7239,
  "\u2581impresoara": 7240,
  "\u2581terafimii": 7241,
  "\u2581Vars": 7242,
  "\u2581inteleptului": 7243,
  "\u2581Ahira": 7244,
  "\u2581nepoti": 7245,
  "\u2581hainelor": 7246,
  "\u2581mortului": 7247,
  "\u2581smochinii": 7248,
  "\u2581chen": 7249,
  "\u2581cezar": 7250,
  "\u2581mantiei": 7251,
  "iel": 7252,
  "\u2581boilor": 7253,
  "ortul": 7254,
  "\u2581roditori": 7255,
  "\u2581Sihemul": 7256,
  "Creste": 7257,
  "\u2581pestrita": 7258,
  "\u2581grasi": 7259,
  "\u2581norilor": 7260,
  "Dreptatea": 7261,
  "\u2581berbecilor": 7262,
  "\u2581nevoias": 7263,
  "\u2581carmuit": 7264,
  "rtea": 7265,
  "\u2581stejarii": 7266,
  "\u2581Odinioara": 7267,
  "\u2581Credeti": 7268,
  "ru": 7269,
  "\u2581incordat": 7270,
  "\u2581ocarasc": 7271,
  "ultumesc": 7272,
  "\u2581iubeau": 7273,
  "\u2581incununat": 7274,
  "\u2581fugeau": 7275,
  "\u2581puilor": 7276,
  "\u2581trudit": 7277,
  "\u2581moabitii": 7278,
  "\u2581taurilor": 7279,
  "\u2581ingropare": 7280,
  "\u2581apropiem": 7281,
  "auda": 7282,
  "\u2581ucideti": 7283,
  "\u2581slabit": 7284,
  "\u2581doresti": 7285,
  "\u2581adormi": 7286,
  "\u2581inveseliti": 7287,
  "\u2581darici": 7288,
  "\u2581strope": 7289,
  "\u2581muriti": 7290,
  "\u2581evreii": 7291,
  "\u2581pietrelor": 7292,
  "\u2581asupreste": 7293,
  "eruvimii": 7294,
  "\u2581talmacirea": 7295,
  "\u2581ferecaturi": 7296,
  "\u2581Invatatorul": 7297,
  "\u2581strigati": 7298,
  "\u2581nedrepte": 7299,
  "Do": 7300,
  "\u2581fagaduinte": 7301,
  "\u2581alteia": 7302,
  "\u2581schiop": 7303,
  "\u2581Pastor": 7304,
  "\u2581prigoniti": 7305,
  "\u2581me": 7306,
  "aud": 7307,
  "\u2581intrista": 7308,
  "\u2581curvei": 7309,
  "\u2581calauziti": 7310,
  "\u2581amenintarea": 7311,
  "\u2581incerc": 7312,
  "\u2581Hinom": 7313,
  "inta": 7314,
  "uflarea": 7315,
  "trecuse": 7316,
  "\u2581zori": 7317,
  "\u2581ocrotit": 7318,
  "\u2581Pas": 7319,
  "\u2581pecetluiti": 7320,
  "Vin": 7321,
  "\u2581deosebest": 7322,
  "\u2581totuna": 7323,
  "\u2581muscat": 7324,
  "\u2581cresteti": 7325,
  "dea": 7326,
  "\u2581prorociile": 7327,
  "\u2581prabusire": 7328,
  "\u2581peceti": 7329,
  "\u2581razboiului": 7330,
  "\u2581desavarsite": 7331,
  "Osana": 7332,
  "\u2581temem": 7333,
  "\u2581invatatorii": 7334,
  "\u2581apropiau": 7335,
  "\u2581sirul": 7336,
  "\u2581seca": 7337,
  "\u2581pustiirea": 7338,
  "\u2581prapaditi": 7339,
  "\u2581inselaciunea": 7340,
  "\u2581famenii": 7341,
  "rat": 7342,
  "facut": 7343,
  "icioarele": 7344,
  "\u2581pregate": 7345,
  "\u2581Bogati": 7346,
  "\u2581gonit": 7347,
  "\u2581credeam": 7348,
  "\u2581lamurest": 7349,
  "\u2581strapunsi": 7350,
  "\u2581chemam": 7351,
  "\u2581doborati": 7352,
  "\u2581calcare": 7353,
  "\u2581vacii": 7354,
  "\u2581culci": 7355,
  "\u2581nebunii": 7356,
  "mon": 7357,
  "\u2581stralucita": 7358,
  "\u2581binevoiest": 7359,
  "\u2581ascunsese": 7360,
  "\u2581traiam": 7361,
  "\u2581calatorii": 7362,
  "\u2581ingrijitori": 7363,
  "\u2581indraciti": 7364,
  "\u2581invataturii": 7365,
  "\u2581Are": 7366,
  "\u2581cumparare": 7367,
  "\u2581cinstest": 7368,
  "\u2581odihniti": 7369,
  "\u2581stiri": 7370,
  "\u2581fagure": 7371,
  "\u2581insuflat": 7372,
  "eremot": 7373,
  "\u2581daramare": 7374,
  "\u2581tasni": 7375,
  "\u2581injunghii": 7376,
  "\u2581stricate": 7377,
  "\u2581vizuini": 7378,
  "\u2581sporit": 7379,
  "\u2581instiintari": 7380,
  "\u2581Asna": 7381,
  "ac": 7382,
  "Il": 7383,
  "\u2581nedreptatea": 7384,
  "\u2581Puneti": 7385,
  "\u2581batjocoriti": 7386,
  "\u2581raspandi": 7387,
  "\u2581batranetea": 7388,
  "\u2581deosebiti": 7389,
  "\u2581Ramasit": 7390,
  "F": 7391,
  "\u2581bolnavii": 7392,
  "\u2581Rebecai": 7393,
  "\u2581taiata": 7394,
  "\u2581launtr": 7395,
  "\u2581jertfi": 7396,
  "cheia": 7397,
  "\u2581dezmierdari": 7398,
  "\u2581Tema": 7399,
  "\u2581nimicim": 7400,
  "\u2581Samai": 7401,
  "\u2581impresurata": 7402,
  "\u2581sacii": 7403,
  "\u2581nevinovati": 7404,
  "\u2581socote": 7405,
  "\u2581desparte": 7406,
  "\u2581tulburati": 7407,
  "cum": 7408,
  "\u2581curs": 7409,
  "\u2581ridicand": 7410,
  "\u2581carturarul": 7411,
  "isera": 7412,
  "\u2581tabarati": 7413,
  "\u2581umbre": 7414,
  "antul": 7415,
  "\u2581pumni": 7416,
  "\u2581bob": 7417,
  "\u2581Ghi": 7418,
  "\u2581domnes": 7419,
  "\u2581pres": 7420,
  "\u2581impotrivire": 7421,
  "\u2581sug": 7422,
  "\u2581inselatorii": 7423,
  "\u2581incerca": 7424,
  "rah": 7425,
  "\u2581sat": 7426,
  "\u2581tunet": 7427,
  "\u2581revarsa": 7428,
  "\u2581minta": 7429,
  "\u2581Amasai": 7430,
  "\u2581curviei": 7431,
  "\u2581ascutit": 7432,
  "\u2581dormit": 7433,
  "\u2581parasiti": 7434,
  "\u2581impietrita": 7435,
  "\u2581catui": 7436,
  "\u2581vatam": 7437,
  "\u2581magi": 7438,
  "\u2581Isia": 7439,
  "Niciun": 7440,
  "\u2581Acu": 7441,
  "\u2581leprosi": 7442,
  "Sean": 7443,
  "\u2581curvii": 7444,
  "\u2581voiesti": 7445,
  "\u2581paturi": 7446,
  "\u2581ratacest": 7447,
  "\u2581umfla": 7448,
  "\u2581jertfest": 7449,
  "elalte": 7450,
  "\u2581ramase": 7451,
  "\u2581Iabesul": 7452,
  "\u2581urui": 7453,
  "\u2581Lo": 7454,
  "\u2581curg": 7455,
  "\u2581prigoniri": 7456,
  "\u2581tablii": 7457,
  "\u2581trecute": 7458,
  "Jura": 7459,
  "itorul": 7460,
  "\u2581sfaramate": 7461,
  "rand": 7462,
  "\u2581sfatui": 7463,
  "daca": 7464,
  "\u2581numeau": 7465,
  "\u2581innoit": 7466,
  "\u2581asemanat": 7467,
  "\u2581fruntas": 7468,
  "\u2581var": 7469,
  "\u2581pizmui": 7470,
  "\u2581lucrator": 7471,
  "\u2581umfl": 7472,
  "\u2581stejari": 7473,
  "\u2581Ira": 7474,
  "\u2581beniamitul": 7475,
  "guie": 7476,
  "\u2581Baali": 7477,
  "\u2581sfasiata": 7478,
  "\u2581Paha": 7479,
  "li": 7480,
  "fia": 7481,
  "\u2581chemand": 7482,
  "\u2581lucratorul": 7483,
  "\u2581Azri": 7484,
  "\u2581cait": 7485,
  "\u2581vrajmasie": 7486,
  "\u2581ucisese": 7487,
  "\u2581Puternicul": 7488,
  "\u2581umblau": 7489,
  "\u2581spal": 7490,
  "\u2581calauz": 7491,
  "\u2581incredintati": 7492,
  "nos": 7493,
  "arzi": 7494,
  "\u2581pazite": 7495,
  "\u2581randuise": 7496,
  "\u2581epistole": 7497,
  "\u2581Domnitor": 7498,
  "\u2581impartiti": 7499,
  "\u2581vesel": 7500,
  "\u2581ung": 7501,
  "\u2581num": 7502,
  "\u2581pervaz": 7503,
  "mele": 7504,
  "\u2581negotul": 7505,
  "Ave": 7506,
  "\u2581strangea": 7507,
  "Ale": 7508,
  "\u2581pahare": 7509,
  "\u2581trecator": 7510,
  "\u2581pierduta": 7511,
  "\u2581prinsa": 7512,
  "\u2581carului": 7513,
  "\u2581innoi": 7514,
  "\u2581cunoscuti": 7515,
  "Bo": 7516,
  "Taiati": 7517,
  "mana": 7518,
  "\u2581Carturar": 7519,
  "\u2581icoan": 7520,
  "uta": 7521,
  "\u2581propasi": 7522,
  "\u2581fluiere": 7523,
  "stile": 7524,
  "\u2581turnati": 7525,
  "\u2581aruncase": 7526,
  "\u2581urzi": 7527,
  "\u2581Car": 7528,
  "\u2581strabat": 7529,
  "\u2581Ac": 7530,
  "\u2581snop": 7531,
  "\u2581Cea": 7532,
  "ceapa": 7533,
  "\u2581asta": 7534,
  "targul": 7535,
  "\u2581despartea": 7536,
  "oarele": 7537,
  "ed": 7538,
  "tura": 7539,
  "Tie": 7540,
  "\u2581tuns": 7541,
  "\u2581incepuse": 7542,
  "er": 7543,
  "\u2581Matat": 7544,
  "\u2581talhar": 7545,
  "\u2581fiecarei": 7546,
  "Numele": 7547,
  "\u2581Cauta": 7548,
  "\u2581mostenitor": 7549,
  "\u2581foamea": 7550,
  "\u2581speria": 7551,
  "\u2581Gand": 7552,
  "Vorbi": 7553,
  "\u2581pieriti": 7554,
  "lon": 7555,
  "\u2581altei": 7556,
  "\u2581stropest": 7557,
  "nului": 7558,
  "\u2581lupi": 7559,
  "Casa": 7560,
  "\u2581tabl": 7561,
  "zile": 7562,
  "\u2581insufla": 7563,
  "dul": 7564,
  "\u2581Sta": 7565,
  "\u2581prosti": 7566,
  "\u2581stapanea": 7567,
  "ja": 7568,
  "\u2581lasand": 7569,
  "\u2581Lucruri": 7570,
  "ezul": 7571,
  "\u2581azvarli": 7572,
  "\u2581Sui": 7573,
  "\u2581trist": 7574,
  "\u2581injunghia": 7575,
  "\u2581juri": 7576,
  "\u2581indemna": 7577,
  "\u2581tocm": 7578,
  "\u2581Abe": 7579,
  "tea": 7580,
  "\u2581pereti": 7581,
  "\u2581sting": 7582,
  "rati": 7583,
  "Invatatorul": 7584,
  "unghia": 7585,
  "\u2581supara": 7586,
  "macar": 7587,
  "\u2581tipa": 7588,
  "Chemati": 7589,
  "Cumpara": 7590,
  "rgintul": 7591,
  "\u2581Mara": 7592,
  "Tot": 7593,
  "ud": 7594,
  "Cheama": 7595,
  "\u2581cutremurul": 7596,
  "Ezer": 7597,
  "Treceti": 7598,
  "\u2581sfaramati": 7599,
  "\u2581Matan": 7600,
  "\u2581lenes": 7601,
  "\u2581Che": 7602,
  "res": 7603,
  "Degeaba": 7604,
  "Intareste": 7605,
  "\u2581incredintata": 7606,
  "\u2581cusut": 7607,
  "Nicidecum": 7608,
  "Rimon": 7609,
  "Calea": 7610,
  "Arata": 7611,
  "\u2581rad": 7612,
  "\u2581rosiatic": 7613,
  "\u2581Cam": 7614,
  "Strigati": 7615,
  "\u2581urmez": 7616,
  "\u2581molim": 7617,
  "Numai": 7618,
  "\u2581Gam": 7619,
  "\u2581Suflet": 7620,
  "\u2581invechit": 7621,
  "lim": 7622,
  "\u2581blandete": 7623,
  "\u2581pulbere": 7624,
  "\u2581talmaci": 7625,
  "\u2581secure": 7626,
  "\u2581veseliei": 7627,
  "\u2581Azar": 7628,
  "\u2581marunt": 7629,
  "\u2581scurta": 7630,
  "\u2581inarmat": 7631,
  "\u2581naparci": 7632,
  "sute": 7633,
  "\u2581Fac": 7634,
  "parca": 7635,
  "\u2581smulga": 7636,
  "\u2581milos": 7637,
  "\u2581roditor": 7638,
  "\u2581neascultator": 7639,
  "\u2581incremenit": 7640,
  "iata": 7641,
  "\u2581pornire": 7642,
  "\u2581usori": 7643,
  "\u2581impletit": 7644,
  "et": 7645,
  "\u2581nurori": 7646,
  "metea": 7647,
  "\u2581mantie": 7648,
  "Indrazn": 7649,
  "\u2581despuia": 7650,
  "\u2581Mitpe": 7651,
  "\u2581inveselit": 7652,
  "\u2581oranduiri": 7653,
  "\u2581marturisiri": 7654,
  "\u2581locuitor": 7655,
  "\u2581tigai": 7656,
  "\u2581infatisez": 7657,
  "\u2581izgonest": 7658,
  "asculti": 7659,
  "\u2581necinsti": 7660,
  "\u2581adeveres": 7661,
  "\u2581pravali": 7662,
  "san": 7663,
  "\u2581cutreierat": 7664,
  "\u2581vazduh": 7665,
  "\u2581izb": 7666,
  "\u2581lipsea": 7667,
  "\u2581Ascalon": 7668,
  "\u2581ospete": 7669,
  "\u2581Cuvant": 7670,
  "\u2581diamant": 7671,
  "\u2581grumaz": 7672,
  "\u2581adancuri": 7673,
  "\u2581copci": 7674,
  "\u2581strugure": 7675,
  "\u2581ghirgasiti": 7676,
  "\u2581religi": 7677,
  "\u2581scuipat": 7678,
  "Rogu": 7679,
  "\u2581palatul": 7680,
  "\u2581scriitor": 7681,
  "\u2581bajbai": 7682,
  "pina": 7683,
  "\u2581glasuri": 7684,
  "\u2581Asir": 7685,
  "\u2581faclii": 7686,
  "Hataava": 7687,
  "Prietene": 7688,
  "\u2581Amisadai": 7689,
  "\u2581Argob": 7690,
  "\u2581Aristarh": 7691,
  "\u2581Bahurim": 7692,
  "\u2581Chedorlaomer": 7693,
  "\u2581Ghemaria": 7694,
  "\u2581Ioiarib": 7695,
  "\u2581Libnei": 7696,
  "\u2581Mihail": 7697,
  "\u2581Naomei": 7698,
  "\u2581Nicodim": 7699,
  "\u2581Oholiab": 7700,
  "\u2581Pamfilia": 7701,
  "\u2581Refidim": 7702,
  "\u2581Rehabia": 7703,
  "\u2581Saptamanilor": 7704,
  "\u2581Serug": 7705,
  "\u2581Tihic": 7706,
  "\u2581Totdeauna": 7707,
  "\u2581Turisadai": 7708,
  "\u2581agaghitul": 7709,
  "\u2581basilic": 7710,
  "\u2581ciomege": 7711,
  "\u2581cocostarcul": 7712,
  "\u2581cristalul": 7713,
  "\u2581galceava": 7714,
  "\u2581galcevitoare": 7715,
  "\u2581gingas": 7716,
  "\u2581gloaba": 7717,
  "\u2581jaratic": 7718,
  "\u2581logofeti": 7719,
  "\u2581paduchi": 7720,
  "\u2581pelicanul": 7721,
  "\u2581tambale": 7722,
  "\u2581zdrente": 7723,
  "\u2581Gozan": 7724,
  "\u2581Ohola": 7725,
  "\u2581Pedahtur": 7726,
  "\u2581Ramses": 7727,
  "\u2581Zanoah": 7728,
  "\u2581anatema": 7729,
  "\u2581inchegat": 7730,
  "\u2581pocaintei": 7731,
  "\u2581zestre": 7732,
  "\u2581Azuba": 7733,
  "\u2581Ioiada": 7734,
  "\u2581Ocran": 7735,
  "\u2581Sedeur": 7736,
  "\u2581ameteala": 7737,
  "\u2581boteaza": 7738,
  "\u2581venetic": 7739,
  "\u2581Rasplat": 7740,
  "\u2581Magog": 7741,
  "\u2581trunchiul": 7742,
  "\u2581Nebaiot": 7743,
  "\u2581celeilalte": 7744,
  "\u2581Ghideoni": 7745,
  "\u2581Abisua": 7746,
  "\u2581Pelatia": 7747,
  "\u2581intunecoasa": 7748,
  "\u2581Metusala": 7749,
  "\u2581miresei": 7750,
  "\u2581Helon": 7751,
  "\u2581Raema": 7752,
  "\u2581frageda": 7753,
  "\u2581Becher": 7754,
  "\u2581premiul": 7755,
  "\u2581Disan": 7756,
  "\u2581adesea": 7757,
  "\u2581Lupta": 7758,
  "\u2581Hatus": 7759,
  "\u2581Arabiei": 7760,
  "\u2581talmaceasca": 7761,
  "Peratim": 7762,
  "\u2581lopata": 7763,
  "\u2581oboseste": 7764,
  "\u2581jelesc": 7765,
  "\u2581opresti": 7766,
  "\u2581Dodo": 7767,
  "\u2581indeplineasca": 7768,
  "\u2581sidonienilor": 7769,
  "\u2581Hacot": 7770,
  "\u2581Atena": 7771,
  "\u2581Tartan": 7772,
  "\u2581mandragore": 7773,
  "\u2581Vietii": 7774,
  "\u2581Alfeu": 7775,
  "\u2581fericirii": 7776,
  "\u2581pribeag": 7777,
  "\u2581Tohar": 7778,
  "\u2581lingusitoare": 7779,
  "\u2581partinire": 7780,
  "\u2581galbui": 7781,
  "\u2581spinteca": 7782,
  "\u2581fumega": 7783,
  "\u2581ghesuritilor": 7784,
  "\u2581preputului": 7785,
  "\u2581simtaminte": 7786,
  "\u2581rastigneasca": 7787,
  "\u2581Iafia": 7788,
  "\u2581vietuire": 7789,
  "\u2581Purim": 7790,
  "\u2581falesc": 7791,
  "\u2581incepatoare": 7792,
  "\u2581Refaia": 7793,
  "\u2581pocaiasca": 7794,
  "\u2581ocrotea": 7795,
  "\u2581Gaiu": 7796,
  "\u2581huleasca": 7797,
  "\u2581movila": 7798,
  "\u2581intaresc": 7799,
  "\u2581matca": 7800,
  "\u2581amestecatura": 7801,
  "\u2581rasplateasca": 7802,
  "\u2581pornesc": 7803,
  "\u2581tunicile": 7804,
  "\u2581marmura": 7805,
  "\u2581proslaveste": 7806,
  "\u2581treisprezecelea": 7807,
  "\u2581dispretuiasca": 7808,
  "\u2581incalzeasca": 7809,
  "\u2581inconjurasera": 7810,
  "\u2581Satano": 7811,
  "\u2581pieirii": 7812,
  "\u2581Ghesur": 7813,
  "\u2581innegrit": 7814,
  "\u2581Astarteilor": 7815,
  "\u2581mucarile": 7816,
  "\u2581rasunatoare": 7817,
  "\u2581bivolului": 7818,
  "\u2581jefuiesc": 7819,
  "\u2581strutii": 7820,
  "\u2581imbucatur": 7821,
  "\u2581impartasire": 7822,
  "\u2581cumparatorul": 7823,
  "\u2581Totodata": 7824,
  "\u2581Leaga": 7825,
  "\u2581paisprezecelea": 7826,
  "\u2581arameul": 7827,
  "\u2581Mahla": 7828,
  "\u2581Numar": 7829,
  "\u2581vanator": 7830,
  "\u2581Hasum": 7831,
  "\u2581Palu": 7832,
  "\u2581dormind": 7833,
  "\u2581Arabia": 7834,
  "\u2581cartirile": 7835,
  "\u2581Sesan": 7836,
  "Vanzare": 7837,
  "\u2581Urmarit": 7838,
  "\u2581uimire": 7839,
  "\u2581Deuel": 7840,
  "\u2581insoteau": 7841,
  "\u2581vesmant": 7842,
  "\u2581talcuieste": 7843,
  "\u2581inteapa": 7844,
  "\u2581hotaraste": 7845,
  "\u2581Nimsi": 7846,
  "\u2581Pelet": 7847,
  "\u2581privegheze": 7848,
  "\u2581dezbinare": 7849,
  "\u2581Samla": 7850,
  "\u2581adunasera": 7851,
  "\u2581mantuiesc": 7852,
  "\u2581incapere": 7853,
  "\u2581barbii": 7854,
  "\u2581templele": 7855,
  "\u2581cumperi": 7856,
  "\u2581voievodul": 7857,
  "\u2581multumesc": 7858,
  "\u2581negri": 7859,
  "\u2581prapastie": 7860,
  "\u2581captusit": 7861,
  "\u2581racni": 7862,
  "\u2581Dorului": 7863,
  "\u2581semanaturile": 7864,
  "\u2581sparturile": 7865,
  "\u2581etiopianul": 7866,
  "\u2581tagaduit": 7867,
  "\u2581nard": 7868,
  "\u2581simtire": 7869,
  "\u2581Asiei": 7870,
  "\u2581piedica": 7871,
  "\u2581zabal": 7872,
  "\u2581olarul": 7873,
  "\u2581munceste": 7874,
  "\u2581pruncilor": 7875,
  "\u2581pierzi": 7876,
  "\u2581alergand": 7877,
  "\u2581fruntasul": 7878,
  "\u2581pocaieste": 7879,
  "\u2581incredintare": 7880,
  "\u2581Acor": 7881,
  "\u2581copcile": 7882,
  "\u2581Naf": 7883,
  "\u2581tunetul": 7884,
  "\u2581coastele": 7885,
  "\u2581Acsa": 7886,
  "\u2581multumim": 7887,
  "\u2581Eleale": 7888,
  "\u2581coaste": 7889,
  "\u2581Nevestel": 7890,
  "\u2581snopul": 7891,
  "\u2581Patros": 7892,
  "\u2581domnitorului": 7893,
  "\u2581linge": 7894,
  "\u2581sfasia": 7895,
  "\u2581imbarbatez": 7896,
  "\u2581abaterile": 7897,
  "\u2581durerilor": 7898,
  "\u2581Salma": 7899,
  "\u2581uciderile": 7900,
  "\u2581inchinasera": 7901,
  "\u2581marinarii": 7902,
  "\u2581nestiutori": 7903,
  "\u2581porneste": 7904,
  "gad": 7905,
  "\u2581toiegele": 7906,
  "\u2581greceste": 7907,
  "\u2581potopul": 7908,
  "\u2581impiedice": 7909,
  "\u2581porumbita": 7910,
  "\u2581Zerahia": 7911,
  "\u2581pustieste": 7912,
  "\u2581Setar": 7913,
  "\u2581steaua": 7914,
  "\u2581Cirena": 7915,
  "\u2581usierilor": 7916,
  "\u2581supt": 7917,
  "\u2581maniase": 7918,
  "\u2581invaluit": 7919,
  "\u2581tamaierii": 7920,
  "\u2581netrebnici": 7921,
  "\u2581Simri": 7922,
  "\u2581Arnonului": 7923,
  "\u2581adancurile": 7924,
  "\u2581rotilor": 7925,
  "\u2581ghere": 7926,
  "\u2581crapatur": 7927,
  "\u2581grecilor": 7928,
  "\u2581sufleteasca": 7929,
  "\u2581obrazul": 7930,
  "\u2581maslinului": 7931,
  "\u2581cantecul": 7932,
  "\u2581taberele": 7933,
  "\u2581neprefacuta": 7934,
  "\u2581sterp": 7935,
  "\u2581invataturilor": 7936,
  "\u2581fruntasilor": 7937,
  "\u2581Estemoa": 7938,
  "\u2581Odrasla": 7939,
  "\u2581margaritarele": 7940,
  "\u2581Matei": 7941,
  "\u2581fereste": 7942,
  "\u2581cantand": 7943,
  "\u2581Ono": 7944,
  "\u2581cunosteam": 7945,
  "\u2581varsare": 7946,
  "\u2581daramaturilor": 7947,
  "\u2581inscrisi": 7948,
  "\u2581petreaca": 7949,
  "\u2581Carmelului": 7950,
  "\u2581amenintat": 7951,
  "\u2581zbor": 7952,
  "\u2581nemarginita": 7953,
  "\u2581preainalte": 7954,
  "\u2581gemete": 7955,
  "Fatarnicilor": 7956,
  "\u2581chili": 7957,
  "\u2581gres": 7958,
  "\u2581seceta": 7959,
  "\u2581nuielele": 7960,
  "\u2581cumparase": 7961,
  "\u2581privesti": 7962,
  "\u2581vulturului": 7963,
  "\u2581mustar": 7964,
  "\u2581nimicitorul": 7965,
  "\u2581Cunosc": 7966,
  "\u2581intristez": 7967,
  "\u2581Dregatorii": 7968,
  "\u2581batuse": 7969,
  "\u2581sucite": 7970,
  "\u2581paduri": 7971,
  "\u2581Atarot": 7972,
  "\u2581smereste": 7973,
  "\u2581Imna": 7974,
  "\u2581stapanirile": 7975,
  "\u2581trecatorii": 7976,
  "\u2581loveau": 7977,
  "\u2581cantarul": 7978,
  "\u2581Lehi": 7979,
  "potrivesc": 7980,
  "\u2581necredinta": 7981,
  "beha": 7982,
  "\u2581sadeste": 7983,
  "\u2581gandeasca": 7984,
  "\u2581spinilor": 7985,
  "\u2581inveselim": 7986,
  "\u2581valva": 7987,
  "\u2581zidirii": 7988,
  "\u2581Samua": 7989,
  "\u2581calaretilor": 7990,
  "\u2581Arad": 7991,
  "ainile": 7992,
  "\u2581muncile": 7993,
  "\u2581cerceii": 7994,
  "orii": 7995,
  "Putem": 7996,
  "\u2581iesirile": 7997,
  "\u2581orzul": 7998,
  "\u2581orbul": 7999,
  "\u2581patrund": 8000,
  "\u2581magarilor": 8001,
  "\u2581ghicitoarea": 8002,
  "\u2581Betsaida": 8003,
  "\u2581doarma": 8004,
  "\u2581darnicie": 8005,
  "\u2581Greu": 8006,
  "\u2581curatarii": 8007,
  "\u2581oprea": 8008,
  "\u2581triste": 8009,
  "\u2581ploii": 8010,
  "\u2581mijloceste": 8011,
  "\u2581chenitul": 8012,
  "\u2581priveau": 8013,
  "\u2581bociti": 8014,
  "\u2581scuipa": 8015,
  "\u2581urmasilor": 8016,
  "\u2581incredinteze": 8017,
  "\u2581urmatoarele": 8018,
  "\u2581molia": 8019,
  "\u2581fure": 8020,
  "\u2581lup": 8021,
  "\u2581platea": 8022,
  "\u2581funie": 8023,
  "\u2581certarea": 8024,
  "\u2581inmultea": 8025,
  "\u2581Cinci": 8026,
  "\u2581Sitim": 8027,
  "\u2581Departati": 8028,
  "aduci": 8029,
  "\u2581slave": 8030,
  "\u2581Trage": 8031,
  "\u2581prind": 8032,
  "\u2581Enan": 8033,
  "\u2581boului": 8034,
  "\u2581intocmire": 8035,
  "\u2581pricepeti": 8036,
  "\u2581Reu": 8037,
  "\u2581sacalii": 8038,
  "\u2581sticla": 8039,
  "\u2581urmareau": 8040,
  "\u2581batranul": 8041,
  "\u2581Ari": 8042,
  "\u2581sufleteste": 8043,
  "\u2581insanatosi": 8044,
  "\u2581miristea": 8045,
  "\u2581izbandi": 8046,
  "\u2581ispravnicia": 8047,
  "\u2581etiopieni": 8048,
  "\u2581coplesi": 8049,
  "\u2581prorocea": 8050,
  "\u2581Credincios": 8051,
  "\u2581randuieli": 8052,
  "\u2581Abiam": 8053,
  "\u2581toiagului": 8054,
  "\u2581prastia": 8055,
  "\u2581asirian": 8056,
  "\u2581insemnate": 8057,
  "\u2581bucatile": 8058,
  "\u2581apasau": 8059,
  "\u2581fugim": 8060,
  "\u2581ingrijitorii": 8061,
  "\u2581aloe": 8062,
  "liel": 8063,
  "\u2581napastuit": 8064,
  "\u2581Abarim": 8065,
  "Pa": 8066,
  "\u2581Rod": 8067,
  "\u2581Poarta": 8068,
  "\u2581Hul": 8069,
  "\u2581Isei": 8070,
  "\u2581desfiintat": 8071,
  "\u2581Curata": 8072,
  "\u2581trestii": 8073,
  "\u2581norului": 8074,
  "\u2581darame": 8075,
  "punem": 8076,
  "\u2581rasad": 8077,
  "\u2581placinte": 8078,
  "\u2581mosten": 8079,
  "\u2581Urech": 8080,
  "\u2581starpit": 8081,
  "\u2581risipa": 8082,
  "\u2581bubuit": 8083,
  "\u2581dezgusta": 8084,
  "\u2581vorbirii": 8085,
  "\u2581pervazul": 8086,
  "\u2581marile": 8087,
  "\u2581stins": 8088,
  "\u2581uscatul": 8089,
  "\u2581impreunez": 8090,
  "Stapane": 8091,
  "\u2581patima": 8092,
  "\u2581fugarii": 8093,
  "\u2581stricaciune": 8094,
  "\u2581stergar": 8095,
  "\u2581On": 8096,
  "\u2581umpl": 8097,
  "\u2581calauza": 8098,
  "\u2581cumparau": 8099,
  "\u2581luminatori": 8100,
  "\u2581treburi": 8101,
  "\u2581surpate": 8102,
  "\u2581indure": 8103,
  "en": 8104,
  "\u2581trageti": 8105,
  "\u2581avutia": 8106,
  "\u2581ingamfate": 8107,
  "\u2581Iesiti": 8108,
  "cincisprezecelea": 8109,
  "\u2581arcasi": 8110,
  "\u2581impietri": 8111,
  "\u2581cereasca": 8112,
  "\u2581alerge": 8113,
  "\u2581patimi": 8114,
  "\u2581razboaiel": 8115,
  "\u2581intrebam": 8116,
  "\u2581sfinteniei": 8117,
  "\u2581binecuvantam": 8118,
  "\u2581slobozit": 8119,
  "\u2581rub": 8120,
  "\u2581deoseb": 8121,
  "\u2581leilor": 8122,
  "\u2581Bala": 8123,
  "\u2581dorinte": 8124,
  "\u2581prostia": 8125,
  "\u2581coapt": 8126,
  "\u2581Naara": 8127,
  "\u2581Hana": 8128,
  "\u2581slavind": 8129,
  "\u2581pomet": 8130,
  "enie": 8131,
  "\u2581satui": 8132,
  "\u2581Sarii": 8133,
  "\u2581basme": 8134,
  "\u2581tepus": 8135,
  "\u2581inserat": 8136,
  "nia": 8137,
  "\u2581imputina": 8138,
  "\u2581Ezer": 8139,
  "\u2581Misma": 8140,
  "\u2581caprioare": 8141,
  "\u2581arder": 8142,
  "\u2581magaritei": 8143,
  "\u2581gradinii": 8144,
  "\u2581dezgolit": 8145,
  "\u2581pedepsei": 8146,
  "\u2581Atai": 8147,
  "\u2581cartiti": 8148,
  "\u2581Iose": 8149,
  "\u2581trista": 8150,
  "\u2581imprejurari": 8151,
  "Era": 8152,
  "\u2581feriti": 8153,
  "\u2581datora": 8154,
  "\u2581Raul": 8155,
  "Fie": 8156,
  "\u2581Strigati": 8157,
  "\u2581uneltiril": 8158,
  "\u2581uri": 8159,
  "inile": 8160,
  "\u2581orbire": 8161,
  "\u2581gard": 8162,
  "\u2581nevinovatie": 8163,
  "\u2581ticalos": 8164,
  "\u2581Inger": 8165,
  "\u2581datorat": 8166,
  "\u2581incredeau": 8167,
  "\u2581binefacator": 8168,
  "\u2581defaima": 8169,
  "\u2581Rit": 8170,
  "\u2581impietrire": 8171,
  "\u2581Familii": 8172,
  "\u2581Strig": 8173,
  "\u2581zace": 8174,
  "\u2581gasim": 8175,
  "steasca": 8176,
  "\u2581maslinii": 8177,
  "\u2581lips": 8178,
  "\u2581caturi": 8179,
  "\u2581Egla": 8180,
  "\u2581incheie": 8181,
  "\u2581nadajduit": 8182,
  "\u2581acoperise": 8183,
  "\u2581asuprirea": 8184,
  "\u2581tesuta": 8185,
  "\u2581mandriei": 8186,
  "\u2581falci": 8187,
  "\u2581dreptului": 8188,
  "\u2581stramta": 8189,
  "\u2581inchinam": 8190,
  "\u2581abur": 8191,
  "\u2581zguduit": 8192,
  "\u2581Ucenic": 8193,
  "mandoua": 8194,
  "\u2581rasufla": 8195,
  "\u2581coapsei": 8196,
  "starea": 8197,
  "\u2581aparat": 8198,
  "\u2581calci": 8199,
  "edata": 8200,
  "\u2581judecam": 8201,
  "\u2581neadevarul": 8202,
  "ealalta": 8203,
  "\u2581zidite": 8204,
  "\u2581Pur": 8205,
  "cii": 8206,
  "\u2581intamplari": 8207,
  "etatea": 8208,
  "\u2581pesterii": 8209,
  "\u2581cinstita": 8210,
  "\u2581Naha": 8211,
  "\u2581lant": 8212,
  "uni": 8213,
  "asta": 8214,
  "\u2581chinui": 8215,
  "\u2581Ghibeton": 8216,
  "\u2581cumpar": 8217,
  "\u2581Nadajduies": 8218,
  "eam": 8219,
  "\u2581Taanac": 8220,
  "arasi": 8221,
  "\u2581risipite": 8222,
  "\u2581multumiti": 8223,
  "\u2581primejdia": 8224,
  "\u2581vinului": 8225,
  "\u2581dispretuiest": 8226,
  "\u2581Hot": 8227,
  "\u2581simti": 8228,
  "\u2581Hac": 8229,
  "\u2581nedrepti": 8230,
  "cinsteasca": 8231,
  "pacului": 8232,
  "\u2581pregatita": 8233,
  "\u2581Nof": 8234,
  "\u2581calatoriei": 8235,
  "\u2581Haro": 8236,
  "Israele": 8237,
  "arile": 8238,
  "\u2581slav": 8239,
  "\u2581nimicitor": 8240,
  "\u2581descantece": 8241,
  "\u2581ingrijora": 8242,
  "\u2581silniciei": 8243,
  "\u2581iesim": 8244,
  "tare": 8245,
  "aja": 8246,
  "itoare": 8247,
  "\u2581invartit": 8248,
  "\u2581chin": 8249,
  "\u2581milostenii": 8250,
  "\u2581ucisa": 8251,
  "R": 8252,
  "\u2581mahniti": 8253,
  "\u2581raspandest": 8254,
  "\u2581necurmate": 8255,
  "Paste": 8256,
  "\u2581Neprihani": 8257,
  "\u2581oalele": 8258,
  "\u2581Stapan": 8259,
  "\u2581hoti": 8260,
  "\u2581arginti": 8261,
  "\u2581paharnici": 8262,
  "oti": 8263,
  "\u2581vaduvel": 8264,
  "\u2581intelegere": 8265,
  "dau": 8266,
  "\u2581primite": 8267,
  "\u2581sar": 8268,
  "\u2581Adin": 8269,
  "\u2581chemare": 8270,
  "\u2581Es": 8271,
  "\u2581ploi": 8272,
  "oc": 8273,
  "\u2581setea": 8274,
  "\u2581pasarii": 8275,
  "\u2581iubita": 8276,
  "\u2581infrunta": 8277,
  "\u2581multumita": 8278,
  "\u2581pastrate": 8279,
  "\u2581biciul": 8280,
  "\u2581jurati": 8281,
  "\u2581Ze": 8282,
  "\u2581vecin": 8283,
  "Cain": 8284,
  "\u2581indemnat": 8285,
  "\u2581Intai": 8286,
  "\u2581ara": 8287,
  "\u2581petrecere": 8288,
  "\u2581clopote": 8289,
  "\u2581Locui": 8290,
  "coti": 8291,
  "\u2581calator": 8292,
  "\u2581unsprezecea": 8293,
  "\u2581juncan": 8294,
  "\u2581zabovit": 8295,
  "\u2581lamuri": 8296,
  "bia": 8297,
  "\u2581spaimel": 8298,
  "\u2581vaita": 8299,
  "\u2581Inca": 8300,
  "\u2581adapa": 8301,
  "\u2581pierduti": 8302,
  "Ferest": 8303,
  "\u2581materi": 8304,
  "Cei": 8305,
  "\u2581incheieturi": 8306,
  "\u2581incredea": 8307,
  "\u2581doband": 8308,
  "\u2581Peor": 8309,
  "\u2581lesin": 8310,
  "\u2581cozi": 8311,
  "\u2581izbucn": 8312,
  "\u2581Ahisa": 8313,
  "\u2581statornic": 8314,
  "\u2581impovara": 8315,
  "\u2581citire": 8316,
  "\u2581Duhuri": 8317,
  "\u2581mahnita": 8318,
  "\u2581Tuar": 8319,
  "\u2581tunde": 8320,
  "unul": 8321,
  "\u2581pamantule": 8322,
  "\u2581spinii": 8323,
  "\u2581Temeli": 8324,
  "\u2581ascultam": 8325,
  "\u2581ardeau": 8326,
  "\u2581adunate": 8327,
  "\u2581insirui": 8328,
  "\u2581miselii": 8329,
  "\u2581desfata": 8330,
  "adia": 8331,
  "\u2581gratarul": 8332,
  "\u2581indoi": 8333,
  "\u2581Ghe": 8334,
  "\u2581Imparate": 8335,
  "\u2581intemnitati": 8336,
  "\u2581coreiti": 8337,
  "\u2581cirezi": 8338,
  "\u2581rap": 8339,
  "\u2581manunchi": 8340,
  "\u2581calc": 8341,
  "\u2581vindecata": 8342,
  "\u2581franta": 8343,
  "\u2581implinea": 8344,
  "\u2581despart": 8345,
  "\u2581calari": 8346,
  "\u2581stropi": 8347,
  "\u2581soroc": 8348,
  "\u2581Locuinte": 8349,
  "\u2581schimbati": 8350,
  "\u2581saditi": 8351,
  "rind": 8352,
  "\u2581bunuril": 8353,
  "nile": 8354,
  "\u2581iscode": 8355,
  "\u2581Logof": 8356,
  "\u2581chinul": 8357,
  "\u2581impaca": 8358,
  "\u2581doctori": 8359,
  "\u2581impart": 8360,
  "Dor": 8361,
  "\u2581slaba": 8362,
  "tem": 8363,
  "\u2581gratar": 8364,
  "\u2581vatama": 8365,
  "\u2581Mah": 8366,
  "\u2581Sele": 8367,
  "Fer": 8368,
  "\u2581Io": 8369,
  "\u2581ingramades": 8370,
  "tati": 8371,
  "elah": 8372,
  "\u2581calaret": 8373,
  "\u2581mancase": 8374,
  "\u2581jertf": 8375,
  "\u2581instrumentel": 8376,
  "\u2581dispretui": 8377,
  "pusul": 8378,
  "\u2581visator": 8379,
  "ripile": 8380,
  "\u2581taine": 8381,
  "propiati": 8382,
  "\u2581uimi": 8383,
  "\u2581magazii": 8384,
  "\u2581Corabi": 8385,
  "\u2581pluti": 8386,
  "\u2581carmazul": 8387,
  "\u2581preget": 8388,
  "\u2581Ada": 8389,
  "\u2581be": 8390,
  "prinsi": 8391,
  "\u2581miseli": 8392,
  "\u2581Abisa": 8393,
  "era": 8394,
  "\u2581uniti": 8395,
  "cina": 8396,
  "usera": 8397,
  "\u2581cetateni": 8398,
  "\u2581pornise": 8399,
  "Acest": 8400,
  "Iuda": 8401,
  "\u2581simbrias": 8402,
  "\u2581mire": 8403,
  "\u2581pastea": 8404,
  "\u2581avutiil": 8405,
  "\u2581carti": 8406,
  "\u2581cadelnite": 8407,
  "\u2581priceputa": 8408,
  "\u2581invatator": 8409,
  "\u2581archit": 8410,
  "\u2581Iaezerul": 8411,
  "\u2581inchei": 8412,
  "\u2581cantec": 8413,
  "\u2581razvratita": 8414,
  "\u2581straji": 8415,
  "\u2581incolt": 8416,
  "\u2581prefacuta": 8417,
  "\u2581Tof": 8418,
  "\u2581sprijinitor": 8419,
  "pul": 8420,
  "arilor": 8421,
  "ngele": 8422,
  "\u2581Izbucn": 8423,
  "ghe": 8424,
  "prinzi": 8425,
  "\u2581sc": 8426,
  "\u2581Gaze": 8427,
  "\u2581dobandi": 8428,
  "um": 8429,
  "\u2581zeci": 8430,
  "\u2581pamanturi": 8431,
  "\u2581omora": 8432,
  "reche": 8433,
  "\u2581stricaciunil": 8434,
  "lumi": 8435,
  "\u2581betiv": 8436,
  "Avraam": 8437,
  "ascult": 8438,
  "\u2581asemanato": 8439,
  "\u2581drag": 8440,
  "\u2581smer": 8441,
  "\u2581mangaieri": 8442,
  "\u2581At": 8443,
  "\u2581Iaaz": 8444,
  "ratul": 8445,
  "bice": 8446,
  "\u2581strabatea": 8447,
  "\u2581spit": 8448,
  "\u2581ingrijitorul": 8449,
  "\u2581maner": 8450,
  "\u2581locuita": 8451,
  "\u2581ro": 8452,
  "\u2581pipai": 8453,
  "\u2581gre": 8454,
  "hneasca": 8455,
[...]
